{
  "version": "1.0",
  "truncation": null,
  "padding": null,
  "added_tokens": [
    {
      "id": 0,
      "content": "<unk>",
      "single_word": false,
      "lstrip": false,
      "rstrip": false,
      "normalized": false,
      "special": true
    }
  ],
  "normalizer": {
    "type": "NFKC"
  },
  "pre_tokenizer": {
    "type": "Metaspace",
    "replacement": "▁",
    "prepend_scheme": "never",
    "split": true
  },
  "post_processor": null,
  "decoder": {
    "type": "Metaspace",
    "replacement": "▁",
    "prepend_scheme": "never",
    "split": true
  },
  "model": {
    "type": "BPE",
    "dropout": null,
    "unk_token": "<unk>",
    "continuing_subword_prefix": null,
    "end_of_word_suffix": null,
    "fuse_unk": false,
    "byte_fallback": false,
    "ignore_merges": false,
    "vocab": {
      "<unk>": 0,
      "\n": 1,
      "!": 2,
      "\"": 3,
      "#": 4,
      "$": 5,
      "%": 6,
      "&": 7,
      "'": 8,
      "(": 9,
      ")": 10,
      "*": 11,
      "+": 12,
      ",": 13,
      "-": 14,
      ".": 15,
      "/": 16,
      "0": 17,
      "1": 18,
      "2": 19,
      "3": 20,
      "4": 21,
      "5": 22,
      "6": 23,
      "7": 24,
      "8": 25,
      "9": 26,
      ":": 27,
      ";": 28,
      "<": 29,
      "=": 30,
      ">": 31,
      "?": 32,
      "A": 33,
      "B": 34,
      "C": 35,
      "D": 36,
      "E": 37,
      "F": 38,
      "G": 39,
      "H": 40,
      "I": 41,
      "J": 42,
      "K": 43,
      "L": 44,
      "M": 45,
      "N": 46,
      "O": 47,
      "P": 48,
      "Q": 49,
      "R": 50,
      "S": 51,
      "T": 52,
      "U": 53,
      "V": 54,
      "W": 55,
      "X": 56,
      "Y": 57,
      "Z": 58,
      "[": 59,
      "\\": 60,
      "]": 61,
      "^": 62,
      "_": 63,
      "`": 64,
      "a": 65,
      "b": 66,
      "c": 67,
      "d": 68,
      "e": 69,
      "f": 70,
      "g": 71,
      "h": 72,
      "i": 73,
      "j": 74,
      "k": 75,
      "l": 76,
      "m": 77,
      "n": 78,
      "o": 79,
      "p": 80,
      "q": 81,
      "r": 82,
      "s": 83,
      "t": 84,
      "u": 85,
      "v": 86,
      "w": 87,
      "x": 88,
      "y": 89,
      "z": 90,
      "{": 91,
      "|": 92,
      "}": 93,
      "~": 94,
      "°": 95,
      "·": 96,
      "Ö": 97,
      "à": 98,
      "á": 99,
      "â": 100,
      "æ": 101,
      "ç": 102,
      "è": 103,
      "é": 104,
      "í": 105,
      "î": 106,
      "ñ": 107,
      "ö": 108,
      "ü": 109,
      "ā": 110,
      "ī": 111,
      "İ": 112,
      "Ś": 113,
      "ś": 114,
      "ū": 115,
      "ș": 116,
      "ə": 117,
      "ɦ": 118,
      "ɪ": 119,
      "ɾ": 120,
      "ʊ": 121,
      "ʻ": 122,
      "ʼ": 123,
      "ˈ": 124,
      "ː": 125,
      "ί": 126,
      "α": 127,
      "δ": 128,
      "θ": 129,
      "ν": 130,
      "ο": 131,
      "π": 132,
      "ς": 133,
      "ό": 134,
      "ँ": 135,
      "ं": 136,
      "ः": 137,
      "अ": 138,
      "आ": 139,
      "इ": 140,
      "ई": 141,
      "उ": 142,
      "ऊ": 143,
      "ऋ": 144,
      "ऍ": 145,
      "ए": 146,
      "ऐ": 147,
      "ऑ": 148,
      "ओ": 149,
      "औ": 150,
      "क": 151,
      "ख": 152,
      "ग": 153,
      "घ": 154,
      "ङ": 155,
      "च": 156,
      "छ": 157,
      "ज": 158,
      "झ": 159,
      "ञ": 160,
      "ट": 161,
      "ठ": 162,
      "ड": 163,
      "ढ": 164,
      "ण": 165,
      "त": 166,
      "थ": 167,
      "द": 168,
      "ध": 169,
      "न": 170,
      "प": 171,
      "फ": 172,
      "ब": 173,
      "भ": 174,
      "म": 175,
      "य": 176,
      "र": 177,
      "ल": 178,
      "ळ": 179,
      "व": 180,
      "श": 181,
      "ष": 182,
      "स": 183,
      "ह": 184,
      "़": 185,
      "ा": 186,
      "ि": 187,
      "ी": 188,
      "ु": 189,
      "ू": 190,
      "ृ": 191,
      "े": 192,
      "ै": 193,
      "ॉ": 194,
      "ॊ": 195,
      "ो": 196,
      "ौ": 197,
      "्": 198,
      "।": 199,
      "०": 200,
      "१": 201,
      "२": 202,
      "३": 203,
      "४": 204,
      "५": 205,
      "६": 206,
      "७": 207,
      "८": 208,
      "९": 209,
      "॰": 210,
      "ஃ": 211,
      "அ": 212,
      "ஆ": 213,
      "இ": 214,
      "ஈ": 215,
      "உ": 216,
      "ஊ": 217,
      "எ": 218,
      "ஏ": 219,
      "ஐ": 220,
      "ஒ": 221,
      "ஓ": 222,
      "க": 223,
      "ங": 224,
      "ச": 225,
      "ஜ": 226,
      "ஞ": 227,
      "ட": 228,
      "ண": 229,
      "த": 230,
      "ந": 231,
      "ன": 232,
      "ப": 233,
      "ம": 234,
      "ய": 235,
      "ர": 236,
      "ற": 237,
      "ல": 238,
      "ள": 239,
      "ழ": 240,
      "வ": 241,
      "ஷ": 242,
      "ஸ": 243,
      "ஹ": 244,
      "ா": 245,
      "ி": 246,
      "ீ": 247,
      "ு": 248,
      "ூ": 249,
      "ெ": 250,
      "ே": 251,
      "ை": 252,
      "ொ": 253,
      "ோ": 254,
      "ௌ": 255,
      "்": 256,
      "ం": 257,
      "ః": 258,
      "అ": 259,
      "ఆ": 260,
      "ఇ": 261,
      "ఈ": 262,
      "ఉ": 263,
      "ఋ": 264,
      "ఎ": 265,
      "ఏ": 266,
      "ఐ": 267,
      "ఒ": 268,
      "ఓ": 269,
      "ఔ": 270,
      "క": 271,
      "ఖ": 272,
      "గ": 273,
      "ఘ": 274,
      "చ": 275,
      "ఛ": 276,
      "జ": 277,
      "ఞ": 278,
      "ట": 279,
      "ఠ": 280,
      "డ": 281,
      "ఢ": 282,
      "ణ": 283,
      "త": 284,
      "థ": 285,
      "ద": 286,
      "ధ": 287,
      "న": 288,
      "ప": 289,
      "ఫ": 290,
      "బ": 291,
      "భ": 292,
      "మ": 293,
      "య": 294,
      "ర": 295,
      "ల": 296,
      "ళ": 297,
      "వ": 298,
      "శ": 299,
      "ష": 300,
      "స": 301,
      "హ": 302,
      "ా": 303,
      "ి": 304,
      "ీ": 305,
      "ు": 306,
      "ూ": 307,
      "ృ": 308,
      "ె": 309,
      "ే": 310,
      "ై": 311,
      "ొ": 312,
      "ో": 313,
      "ౌ": 314,
      "్": 315,
      "ṅ": 316,
      "ṇ": 317,
      "Ṛ": 318,
      "ṣ": 319,
      "ṭ": 320,
      "Ἰ": 321,
      "‌": 322,
      "‍": 323,
      "‎": 324,
      "–": 325,
      "—": 326,
      "‘": 327,
      "’": 328,
      "“": 329,
      "”": 330,
      "†": 331,
      "•": 332,
      "′": 333,
      "‹": 334,
      "›": 335,
      "⁡": 336,
      "₹": 337,
      "↑": 338,
      "−": 339,
      "▁": 340,
      "﻿": 341,
      "wi": 342,
      "ki": 343,
      "wiki": 344,
      "ia": 345,
      "dia": 346,
      "or": 347,
      "tt": 348,
      ":/": 349,
      "htt": 350,
      "http": 351,
      "://": 352,
      "](": 353,
      "https": 354,
      "https://": 355,
      "pe": 356,
      "](https://": 357,
      "g/": 358,
      ".or": 359,
      ".org/": 360,
      "pedia": 361,
      ".wiki": 362,
      ".org/wiki": 363,
      ".org/wiki/": 364,
      ".wikipedia": 365,
      ".wikipedia.org/wiki/": 366,
      "▁[": 367,
      "te": 368,
      "en": 369,
      "▁\"": 370,
      "in": 371,
      "\")": 372,
      "an": 373,
      "on": 374,
      "20": 375,
      "th": 376,
      "In": 377,
      "ti": 378,
      "er": 379,
      "ar": 380,
      "India": 381,
      "hi": 382,
      "es": 383,
      "al": 384,
      "்த": 385,
      "](https://en": 386,
      "](https://en.wikipedia.org/wiki/": 387,
      "ta": 388,
      "re": 389,
      "ிய": 390,
      "ci": 391,
      "of": 392,
      "ार": 393,
      "▁|": 394,
      "ந்த": 395,
      "](https://hi": 396,
      "](https://hi.wikipedia.org/wiki/": 397,
      "▁क": 398,
      "te_": 399,
      "்க": 400,
      "](https://ta": 401,
      "](https://ta.wikipedia.org/wiki/": 402,
      "is": 403,
      "om": 404,
      "#ci": 405,
      "#cite_": 406,
      "ed": 407,
      "the": 408,
      "tion": 409,
      "्र": 410,
      "and": 411,
      "ப்": 412,
      "OT": 413,
      "201": 414,
      "ou": 415,
      "இந்த": 416,
      "▁(": 417,
      "▁of": 418,
      "ம்": 419,
      "▁-": 420,
      "▁the": 421,
      "இந்திய": 422,
      "it": 423,
      "oo": 424,
      "भार": 425,
      "भारत": 426,
      "as": 427,
      "19": 428,
      "ன்": 429,
      "200": 430,
      "்ட": 431,
      "▁ப": 432,
      "le": 433,
      "no": 434,
      "▁स": 435,
      "-0": 436,
      "ic": 437,
      "இந்தியா": 438,
      "▁India": 439,
      "ல்": 440,
      "ப்ப": 441,
      "id": 442,
      "](https://en.wikipedia.org/wiki/India": 443,
      "▁in": 444,
      "tr": 445,
      "ook": 446,
      "-1": 447,
      "ref": 448,
      "▁म": 449,
      "ing": 450,
      "▁and": 451,
      "्य": 452,
      "note": 453,
      "▁s": 454,
      "க்க": 455,
      "#cite_ref": 456,
      "#cite_note": 457,
      "[[": 458,
      "am": 459,
      "్ర": 460,
      "ர்": 461,
      "▁p": 462,
      "ent": 463,
      "து": 464,
      "#cite_ref-": 465,
      "#cite_note-": 466,
      "ation": 467,
      "78": 468,
      "ac": 469,
      "ட்ட": 470,
      "▁A": 471,
      "ad": 472,
      "▁C": 473,
      "ge": 474,
      "](https://te": 475,
      "](https://te.wikipedia.org/wiki/": 476,
      "\\_": 477,
      "us": 478,
      "](https://ta.wikipedia.org/wiki/இந்தியா": 479,
      "रा": 480,
      "▁प": 481,
      "▁ம": 482,
      "com": 483,
      "ate": 484,
      "**": 485,
      "FO": 486,
      "NOT": 487,
      "OTNOT": 488,
      "FOOTNOT": 489,
      "FOOTNOTE": 490,
      "▁S": 491,
      ").": 492,
      "த்த": 493,
      "▁க": 494,
      "▁f": 495,
      "ve": 496,
      "ள்": 497,
      "ur": 498,
      "978": 499,
      "ార": 500,
      "▁c": 501,
      "),": 502,
      "lo": 503,
      "ें": 504,
      "▁1": 505,
      "li": 506,
      "to": 507,
      "ान": 508,
      "ww": 509,
      "▁P": 510,
      "▁[↑": 511,
      "▁த": 512,
      "▁b": 513,
      "र्": 514,
      "▁के": 515,
      "ரு": 516,
      "we": 517,
      "](https://hi.wikipedia.org/wiki/भारत": 518,
      "\"),": 519,
      "ul": 520,
      "rc": 521,
      "um": 522,
      "at": 523,
      ".\n": 524,
      "▁201": 525,
      "et": 526,
      "il": 527,
      "▁ह": 528,
      "he": 529,
      "ver": 530,
      "्त": 531,
      "ch": 532,
      "Sou": 533,
      "IS": 534,
      "ang": 535,
      "ில்": 536,
      "▁m": 537,
      "21": 538,
      "-0)": 539,
      "ும்": 540,
      "▁வ": 541,
      "ின்": 542,
      "book": 543,
      "BN": 544,
      "ter": 545,
      "00": 546,
      "ISBN": 547,
      "ce": 548,
      "es/": 549,
      "of_": 550,
      "_of_": 551,
      "un": 552,
      "▁R": 553,
      "books": 554,
      "▁M": 555,
      "▁இ": 556,
      "lin": 557,
      "ాల": 558,
      "ory": 559,
      "या": 560,
      "िक": 561,
      "▁அ": 562,
      "ol": 563,
      "ons": 564,
      "ial": 565,
      "சி": 566,
      "web": 567,
      "▁T": 568,
      "ங்க": 569,
      "▁में": 570,
      ".com": 571,
      "ற்": 572,
      "tic": 573,
      "ra": 574,
      "▁w": 575,
      "ीय": 576,
      "ro": 577,
      "ri": 578,
      "red": 579,
      "్య": 580,
      "▁d": 581,
      ".[[": 582,
      "IT": 583,
      "23": 584,
      "25": 585,
      ".com/": 586,
      "pg": 587,
      "fi": 588,
      "▁अ": 589,
      "ப்பு": 590,
      "ER": 591,
      "enti": 592,
      "EF": 593,
      "10": 594,
      "த்": 595,
      "ITER": 596,
      "ITEREF": 597,
      "ைய": 598,
      ".g": 599,
      "▁a": 600,
      "ist": 601,
      "భార": 602,
      "Book": 603,
      "ான": 604,
      "భారత": 605,
      "199": 606,
      "க்": 607,
      "res": 608,
      "st": 609,
      "దే": 610,
      "ment": 611,
      "▁to": 612,
      "=1": 613,
      "rces/": 614,
      "▁ந": 615,
      "ों": 616,
      "identi": 617,
      "26": 618,
      ".j": 619,
      "fier": 620,
      "identifier": 621,
      "link": 622,
      "దేశ": 623,
      "స్": 624,
      ":Book": 625,
      "Sources/": 626,
      ":BookSources/": 627,
      "▁B": 628,
      "edit": 629,
      "ig": 630,
      "action": 631,
      ":BookSources/978": 632,
      "]](https://en.wikipedia.org/wiki/India": 633,
      "#C": 634,
      "india": 635,
      "#CITEREF": 636,
      "ir": 637,
      "#cite_ref-FOOTNOTE": 638,
      "#cite_note-FOOTNOTE": 639,
      "वि": 640,
      "▁*": 641,
      "action=": 642,
      "▁D": 643,
      "action=edit": 644,
      "▁ప": 645,
      "&red": 646,
      "?action=edit": 647,
      "link=1": 648,
      "&redlink=1": 649,
      "?action=edit&redlink=1": 650,
      "ना": 651,
      "24": 652,
      "identifier)": 653,
      "ni": 654,
      "ved": 655,
      "▁ज": 656,
      "्ष": 657,
      "age": 658,
      "em": 659,
      "ற்ற": 660,
      "cal": 661,
      "28": 662,
      "సా": 663,
      "▁|\n": 664,
      "-0-": 665,
      "ிர": 666,
      "ाल": 667,
      "▁**": 668,
      "_क": 669,
      "▁है": 670,
      "ay": 671,
      "▁ச": 672,
      "ாக": 673,
      ")\n": 674,
      "ind": 675,
      "ర్": 676,
      "ag": 677,
      "ாட்ட": 678,
      "_(": 679,
      "▁द": 680,
      "tri": 681,
      "ity": 682,
      "ber": 683,
      "▁உ": 684,
      "chi": 685,
      "-3": 686,
      "त्र": 687,
      "న్": 688,
      "राज": 689,
      "\")\n": 690,
      "cial": 691,
      "-4": 692,
      "ly": 693,
      "▁200": 694,
      "con": 695,
      "ेश": 696,
      "न्": 697,
      "ld": 698,
      "िया": 699,
      "www": 700,
      "▁ஆ": 701,
      "▁E": 702,
      "டு": 703,
      "▁l": 704,
      "தி": 705,
      "sia": 706,
      "ண்": 707,
      "11": 708,
      "up": 709,
      "और": 710,
      "calf": 711,
      "www.": 712,
      "ha": 713,
      "▁e": 714,
      "angu": 715,
      "ion": 716,
      "me": 717,
      "her": 718,
      "▁ब": 719,
      "etcalf": 720,
      "-8": 721,
      "rom": 722,
      "▁H": 723,
      "ंग": 724,
      "archi": 725,
      "50": 726,
      "ண்ட": 727,
      "▁G": 728,
      "ew": 729,
      "▁भारत": 730,
      "▁की": 731,
      "_India": 732,
      "▁N": 733,
      "லை": 734,
      "]](https://ta.wikipedia.org/wiki/இந்தியா": 735,
      "▁प्र": 736,
      "ला": 737,
      "▁त": 738,
      "भा": 739,
      "्व": 740,
      "Uni": 741,
      "22": 742,
      "▁न": 743,
      "▁से": 744,
      "Spe": 745,
      "▁re": 746,
      "_in": 747,
      "▁[↑](https://en.wikipedia.org/wiki/India": 748,
      "▁India\")": 749,
      "▁J": 750,
      "▁on": 751,
      "▁20": 752,
      "▁और": 753,
      "30": 754,
      "for": 755,
      "oun": 756,
      "op": 757,
      "లు": 758,
      "ress": 759,
      "tu": 760,
      "ாட்டு": 761,
      "▁का": 762,
      "29": 763,
      "రా": 764,
      "Special": 765,
      "_S": 766,
      "ateg": 767,
      "சு": 768,
      "ub": 769,
      "_स": 770,
      "archive": 771,
      "·**": 772,
      "▁**·**": 773,
      "Metcalf": 774,
      "▁[\"": 775,
      "gle": 776,
      "el": 777,
      "▁19": 778,
      "ary": 779,
      "ategory": 780,
      "ts": 781,
      "्रे": 782,
      "ता": 783,
      "▁•": 784,
      "id=": 785,
      "ategory:": 786,
      "oogle": 787,
      "▁th": 788,
      "्ट": 789,
      "ொட": 790,
      "ள்ள": 791,
      "im": 792,
      "18": 793,
      ".jpg": 794,
      "vers": 795,
      "ன்ன": 796,
      "భారతదేశ": 797,
      "The": 798,
      "ச்": 799,
      "books.g": 800,
      "books.google": 801,
      "?id=": 802,
      "_A": 803,
      ".com/books": 804,
      "books.google.com/books": 805,
      "\"](https://": 806,
      "books.google.com/books?id=": 807,
      "ational": 808,
      ".శ": 809,
      ".శ.": 810,
      "లో": 811,
      "od": 812,
      "archive.org/": 813,
      "▁Re": 814,
      "సా.శ.": 815,
      "27": 816,
      "40": 817,
      "▁or": 818,
      "har": 819,
      "▁F": 820,
      "▁from": 821,
      "16": 822,
      "_த": 823,
      "AA": 824,
      "15": 825,
      "கள": 826,
      "orld": 827,
      "_P": 828,
      "▁\"भारत": 829,
      "▁[ISBN": 830,
      "Special:BookSources/978": 831,
      "▁క": 832,
      "▁[978": 833,
      "ma": 834,
      ".in": 835,
      "\").": 836,
      "web.": 837,
      "-9": 838,
      "स्त": 839,
      "▁व": 840,
      "pl": 841,
      "राज्य": 842,
      "17": 843,
      "web/": 844,
      "archive.org/web/": 845,
      "web.archive.org/web/": 846,
      "▁n": 847,
      "anguage": 848,
      "▁[*": 849,
      "▁g": 850,
      "▁எ": 851,
      "with": 852,
      "क्ष": 853,
      "கு": 854,
      "ित": 855,
      "rit": 856,
      "13": 857,
      "டி": 858,
      "త్ర": 859,
      "ொடர்": 860,
      "tem": 861,
      "▁.": 862,
      "ec": 863,
      "न्द": 864,
      "▁[↑](https://ta.wikipedia.org/wiki/இந்தியா": 865,
      "ాలు": 866,
      "per": 867,
      "రి": 868,
      "os": 869,
      "சிய": 870,
      "comm": 871,
      "క్": 872,
      "14": 873,
      "](https://ta.wikipedia.org/wiki/ப": 874,
      "]](https://en.wikipedia.org/wiki/India#cite_note-": 875,
      "▁आ": 876,
      "ak": 877,
      "ంద": 878,
      "n_": 879,
      "ud": 880,
      "▁O": 881,
      "ted": 882,
      "षा": 883,
      "over": 884,
      "*](https://": 885,
      "पु": 886,
      "மை": 887,
      "▁for": 888,
      "ep": 889,
      "ति": 890,
      "ని": 891,
      "umb": 892,
      "▁h": 893,
      "▁వ": 894,
      "versity": 895,
      "--": 896,
      "s/": 897,
      "ास": 898,
      "Har": 899,
      "ab": 900,
      "▁L": 901,
      "err": 902,
      "கள்": 903,
      "http://": 904,
      "](https://en.wikipedia.org/wiki/India#CITEREF": 905,
      "ov": 906,
      "▁p.": 907,
      "▁In": 908,
      "_of_India": 909,
      "▁---": 910,
      "ast": 911,
      "சிற": 912,
      "ன்னாட்டு": 913,
      "▁[S": 914,
      "ther": 915,
      "ில": 916,
      "▁(identifier)": 917,
      "_(identifier)": 918,
      "▁(identifier)\")": 919,
      "_ப": 920,
      "eved": 921,
      "px": 922,
      "conom": 923,
      "▁W": 924,
      "▁./": 925,
      "gh": 926,
      "-5": 927,
      "स्": 928,
      "▁by": 929,
      "trieved": 930,
      "70": 931,
      "ల్": 932,
      "est": 933,
      "భారతదేశం": 934,
      "_C": 935,
      "-2": 936,
      "inal": 937,
      "media": 938,
      "_and": 939,
      "PA": 940,
      "av": 941,
      "க்கு": 942,
      "uc": 943,
      "▁is": 944,
      "ற்றும்": 945,
      "▁ar": 946,
      "சிறப்பு": 947,
      "று": 948,
      "]](https://en.wikipedia.org/wiki/India#cite_note-FOOTNOTE": 949,
      "भाषा": 950,
      "▁K": 951,
      "ens": 952,
      "ంగ": 953,
      "து.": 954,
      "▁Indian": 955,
      "ன்னாட்டுத்": 956,
      "▁[A": 957,
      "load": 958,
      "error": 959,
      "&pg": 960,
      "मा": 961,
      "▁స": 962,
      "▁को": 963,
      "&pg=": 964,
      ")[[": 965,
      "try": 966,
      "'s": 967,
      "था": 968,
      "upload": 969,
      "]](https://hi.wikipedia.org/wiki/भारत": 970,
      "35": 971,
      "णी": 972,
      "ng": 973,
      "*.": 974,
      "री": 975,
      ".wikimedia": 976,
      "ish": 977,
      "University": 978,
      "▁మ": 979,
      "commons": 980,
      "ची": 981,
      "▁மற்றும்": 982,
      "ap": 983,
      "देश": 984,
      "▁இந்தியா": 985,
      "ார": 986,
      "pedia/": 987,
      ".org/wikipedia/": 988,
      "upload.wikimedia": 989,
      "upload.wikimedia.org/wikipedia/": 990,
      "do": 991,
      "▁ग": 992,
      ".gov": 993,
      "![": 994,
      "List": 995,
      "▁\"ப": 996,
      "](https://upload.wikimedia.org/wikipedia/": 997,
      "thumb": 998,
      "வு": 999,
      "commons/": 1000,
      "ड़": 1001,
      "▁ஒ": 1002,
      "சிறப்பு:BookSources/978": 1003,
      "](https://upload.wikimedia.org/wikipedia/commons/": 1004,
      "thumb/": 1005,
      "tein": 1006,
      "36": 1007,
      "%2": 1008,
      "▁\"C": 1009,
      "్రా": 1010,
      "▁पर": 1011,
      "▁उ": 1012,
      "&pg=PA": 1013,
      "](https://upload.wikimedia.org/wikipedia/commons/thumb/": 1014,
      "px-": 1015,
      "▁ए": 1016,
      "38": 1017,
      "##": 1018,
      "ष्ट": 1019,
      "ाद": 1020,
      "2011": 1021,
      "▁है।": 1022,
      "]](https://ta.wikipedia.org/wiki/இந்தியா#cite_note-FOOTNOTE": 1023,
      "2006": 1024,
      "▁Asia": 1025,
      "ட்": 1026,
      "ற்க": 1027,
      "_in_India": 1028,
      "-7": 1029,
      "ear": 1030,
      "bo": 1031,
      "log": 1032,
      "ీయ": 1033,
      "▁The": 1034,
      "▁*[": 1035,
      "▁orig": 1036,
      "und": 1037,
      "nd": 1038,
      ".p": 1039,
      ".in/": 1040,
      "ff": 1041,
      "▁श": 1042,
      "_के": 1043,
      "47": 1044,
      "our": 1045,
      "ரா": 1046,
      "web.archive.org/web/201": 1047,
      "▁[C": 1048,
      "ow": 1049,
      "*](https://books.google.com/books?id=": 1050,
      "br": 1051,
      "2.": 1052,
      "ండ": 1053,
      "ence": 1054,
      "art": 1055,
      "▁[म": 1056,
      "](https://ta.wikipedia.org/wiki/இந்தியா#CITEREF": 1057,
      "्रेणी": 1058,
      "aj": 1059,
      "▁original": 1060,
      "de": 1061,
      "_म": 1062,
      "▁be": 1063,
      "ages": 1064,
      "श्रेणी": 1065,
      "ष्ट्र": 1066,
      "▁&": 1067,
      "por": 1068,
      "ong": 1069,
      "tate": 1070,
      "▁([": 1071,
      "48": 1072,
      "p.": 1073,
      "▁[↑](https://en.wikipedia.org/wiki/India#cite_ref-": 1074,
      "ys": 1075,
      "का": 1076,
      "▁सं": 1077,
      "▁மு": 1078,
      "विश": 1079,
      "श्रेणी:": 1080,
      "_D": 1081,
      "▁\"ISBN": 1082,
      "ISBN_(identifier)": 1083,
      "South": 1084,
      "1.": 1085,
      "all": 1086,
      "ata": 1087,
      "ले": 1088,
      "_T": 1089,
      "ain": 1090,
      "ने": 1091,
      "జ్య": 1092,
      "2018": 1093,
      "▁చ": 1094,
      "-6": 1095,
      "ेत्र": 1096,
      "ரி": 1097,
      "/https://": 1098,
      "प्र": 1099,
      "म्": 1100,
      "▁[M": 1101,
      "िल": 1102,
      "ால": 1103,
      "les": 1104,
      "▁\"S": 1105,
      "39": 1106,
      "s,": 1107,
      "வின்": 1108,
      "ப்பட்ட": 1109,
      "▁pp.": 1110,
      "வில்": 1111,
      "తా": 1112,
      "▁Retrieved": 1113,
      "_M": 1114,
      "▁\"M": 1115,
      "ము": 1116,
      "த்து": 1117,
      "](https://en.wikipedia.org/wiki/C": 1118,
      "నా": 1119,
      "▁as": 1120,
      "ance": 1121,
      "ந்து": 1122,
      "ll": 1123,
      "sh": 1124,
      "తి": 1125,
      "్ట": 1126,
      "_के_": 1127,
      "▁इ": 1128,
      ".jp": 1129,
      "46": 1130,
      "ans": 1131,
      "्या": 1132,
      "opul": 1133,
      "tern": 1134,
      "िय": 1135,
      "49": 1136,
      "Harv": 1137,
      "▁Press": 1138,
      "ானது": 1139,
      "errors": 1140,
      "हि": 1141,
      "ी](https://hi.wikipedia.org/wiki/": 1142,
      "]](https://ta.wikipedia.org/wiki/இந்தியா#cite_note-": 1143,
      "ubl": 1144,
      ".jpg)": 1145,
      "▁I": 1146,
      "umm": 1147,
      "ke": 1148,
      "▁2011": 1149,
      "ज़": 1150,
      "సి": 1151,
      "se": 1152,
      "வா": 1153,
      "lig": 1154,
      "త్": 1155,
      ".jpg/": 1156,
      "▁[↑](https://hi.wikipedia.org/wiki/भारत": 1157,
      "45": 1158,
      "a_": 1159,
      "सं": 1160,
      "सा": 1161,
      "rchi": 1162,
      "-10": 1163,
      "%20": 1164,
      "sher": 1165,
      "▁[B": 1166,
      "%2C": 1167,
      "og": 1168,
      "ிற": 1169,
      "al_": 1170,
      "▁[↑](https://en.wikipedia.org/wiki/India#cite_ref-FOOTNOTE": 1171,
      "60": 1172,
      "▁r": 1173,
      "त्त": 1174,
      "▁र": 1175,
      "ண்டு": 1176,
      "BA": 1177,
      "ingh": 1178,
      "2010": 1179,
      "ensus": 1180,
      "வை": 1181,
      "Special:BookSources/978-0-": 1182,
      "iv": 1183,
      "37": 1184,
      "QBA": 1185,
      "ct": 1186,
      "QBAJ": 1187,
      "land": 1188,
      "▁\"B": 1189,
      "2009": 1190,
      "pi": 1191,
      "ore": 1192,
      "▁[978-0-": 1193,
      "▁Category:": 1194,
      "Category:": 1195,
      "Stein": 1196,
      "](https://en.wikipedia.org/wiki/M": 1197,
      "ies": 1198,
      "▁t": 1199,
      "fn": 1200,
      "▁(సా.శ.": 1201,
      "Indian": 1202,
      "▁கு": 1203,
      "▁with": 1204,
      "pr": 1205,
      "ss": 1206,
      "ana": 1207,
      "ut": 1208,
      "యా": 1209,
      "](https://en.wikipedia.org/wiki/S": 1210,
      "र्व": 1211,
      "ங்கள": 1212,
      "▁ப.": 1213,
      "▁தொடர்": 1214,
      "opulation": 1215,
      "ंड": 1216,
      "ులు": 1217,
      "▁రా": 1218,
      "▁\"A": 1219,
      "als": 1220,
      "ht": 1221,
      "get": 1222,
      "1998": 1223,
      "AAQBAJ": 1224,
      "plate": 1225,
      "nic": 1226,
      "](https://en.wikipedia.org/wiki/ISBN_(identifier)": 1227,
      "▁[ISBN](https://en.wikipedia.org/wiki/ISBN_(identifier)": 1228,
      "overn": 1229,
      "िस": 1230,
      "–సా.శ.": 1231,
      "7.": 1232,
      "ஸ்": 1233,
      "▁అ": 1234,
      "artic": 1235,
      "राष्ट्र": 1236,
      "ass": 1237,
      "4.": 1238,
      "ank": 1239,
      "டை": 1240,
      "ి.": 1241,
      "கா": 1242,
      "ம்ப": 1243,
      "indu": 1244,
      "_s": 1245,
      "▁ल": 1246,
      "▁University": 1247,
      "rchived": 1248,
      "▁\"P": 1249,
      "ம்\")": 1250,
      "▁பெ": 1251,
      "MetcalfMetcalf": 1252,
      "istory": 1253,
      "ாடு": 1254,
      "▁सा": 1255,
      "▁ప్ర": 1256,
      "्षेत्र": 1257,
      "றை": 1258,
      "▁எண்": 1259,
      "_R": 1260,
      "tim": 1261,
      "ిక": 1262,
      "](http://": 1263,
      "ard": 1264,
      "ன்ற": 1265,
      "▁[↑](https://ta.wikipedia.org/wiki/இந்தியா#cite_ref-FOOTNOTE": 1266,
      "ust": 1267,
      "चि": 1268,
      "9.": 1269,
      "titu": 1270,
      "90": 1271,
      "ai": 1272,
      "other": 1273,
      "मन": 1274,
      "ी_": 1275,
      "తం": 1276,
      "▁राज्य": 1277,
      "ani": 1278,
      ").\n": 1279,
      "3.": 1280,
      "inis": 1281,
      "_B": 1282,
      "पा": 1283,
      "▁[P": 1284,
      "ture": 1285,
      "श्रेणी:Harv": 1286,
      "▁no": 1287,
      "its": 1288,
      "df": 1289,
      "▁V": 1290,
      "जा": 1291,
      "லா": 1292,
      "▁\"म": 1293,
      "hin": 1294,
      "ations": 1295,
      "▁பொ": 1296,
      "_N": 1297,
      "ிரு": 1298,
      "▁भाषा": 1299,
      "வி": 1300,
      "ord": 1301,
      "overnment": 1302,
      "ism": 1303,
      "iss": 1304,
      "ిన": 1305,
      "▁हैं": 1306,
      "జ్యం": 1307,
      "ue": 1308,
      "5.": 1309,
      "▁य": 1310,
      "▁वि": 1311,
      "து.[[": 1312,
      "80": 1313,
      "ile": 1314,
      "new": 1315,
      "▁[2": 1316,
      "▁[↑](https://ta.wikipedia.org/wiki/இந்தியா#cite_ref-": 1317,
      "▁de": 1318,
      "▁भ": 1319,
      "▁ஒரு": 1320,
      "జా": 1321,
      "bot": 1322,
      "oc": 1323,
      "ிரி": 1324,
      "33": 1325,
      "](https://en.wikipedia.org/wiki/B": 1326,
      "ूची": 1327,
      "ணி": 1328,
      "▁(P": 1329,
      "cy": 1330,
      "▁\"T": 1331,
      "▁உள்ள": 1332,
      "htm": 1333,
      "गर": 1334,
      "ంచ": 1335,
      "కు": 1336,
      "ேர": 1337,
      "▁[1": 1338,
      "ame": 1339,
      "▁was": 1340,
      "250": 1341,
      "6.": 1342,
      "outh": 1343,
      "எண்": 1344,
      "-p": 1345,
      "ess": 1346,
      "-s": 1347,
      "லி": 1348,
      "](https://te.wikipedia.org/wiki/భారతదేశం": 1349,
      "▁தர": 1350,
      "]](https://hi.wikipedia.org/wiki/भारत#cite_note-": 1351,
      "albot": 1352,
      "-1)": 1353,
      "கம்": 1354,
      "▁ex": 1355,
      "ash": 1356,
      "1)": 1357,
      "ex": 1358,
      "](https://en.wikipedia.org/wiki/P": 1359,
      "ாள": 1360,
      "67": 1361,
      "conomic": 1362,
      "ेला": 1363,
      "ను": 1364,
      "పూ": 1365,
      "ik": 1366,
      "▁[![": 1367,
      "2007": 1368,
      "▁an": 1369,
      "s.": 1370,
      "▁are": 1371,
      "हा": 1372,
      ".pdf": 1373,
      "ப்பட": 1374,
      "_G": 1375,
      "AAQBAJ&pg=PA": 1376,
      "భా": 1377,
      "_1": 1378,
      "language": 1379,
      "eral": 1380,
      "out": 1381,
      "ical": 1382,
      "ொழ": 1383,
      ")\")": 1384,
      "▁\"E": 1385,
      "कार": 1386,
      "पर": 1387,
      "ரசு": 1388,
      "▁कर": 1389,
      "ंग्रे": 1390,
      "2008": 1391,
      ".pdf)": 1392,
      "Asher": 1393,
      "क्त": 1394,
      "िर": 1395,
      "ी\")": 1396,
      "ोल": 1397,
      "ప్ర": 1398,
      "▁கொ": 1399,
      "DF": 1400,
      "▁5": 1401,
      "லக": 1402,
      "omm": 1403,
      "▁வி": 1404,
      "udd": 1405,
      "कि": 1406,
      "मी": 1407,
      "ద్": 1408,
      "ింద": 1409,
      "aki": 1410,
      "ven": 1411,
      "_தொடர்": 1412,
      "ati": 1413,
      "2004": 1414,
      "▁language": 1415,
      "▁\"இந்திய": 1416,
      "_b": 1417,
      "ian": 1418,
      "ers": 1419,
      "MetcalfMetcalf2006": 1420,
      "ark": 1421,
      "](https://ta.wikipedia.org/wiki/இந்திய": 1422,
      "ப்_ப": 1423,
      "CS": 1424,
      "ine": 1425,
      "▁(PDF": 1426,
      "ான்": 1427,
      "▁ఉ": 1428,
      "சிறப்பு:BookSources/978-0-": 1429,
      "हिन्द": 1430,
      "tics": 1431,
      "34": 1432,
      "rad": 1433,
      "esh": 1434,
      "times": 1435,
      "\")*": 1436,
      "ंध": 1437,
      "ेष": 1438,
      "ం:": 1439,
      "](https://hi.wikipedia.org/wiki/म": 1440,
      "▁போ": 1441,
      "ford": 1442,
      "ountri": 1443,
      ",_": 1444,
      "au": 1445,
      "ाना": 1446,
      "▁अन": 1447,
      "_எண்": 1448,
      "_தர": 1449,
      "56": 1450,
      "▁\"D": 1451,
      "vi": 1452,
      "द्": 1453,
      "से": 1454,
      "▁ఆ": 1455,
      "ியல்": 1456,
      "▁क्षेत्र": 1457,
      "▁that": 1458,
      "▁[ப": 1459,
      "](https://ta.wikipedia.org/wiki/பன்னாட்டுத்": 1460,
      "▁\"பன்னாட்டுத்": 1461,
      "](https://ta.wikipedia.org/wiki/பன்னாட்டுத்_தர": 1462,
      "onstitu": 1463,
      "र्म": 1464,
      "▁[D": 1465,
      "anguages": 1466,
      "▁எண்\")": 1467,
      "_தொடர்_எண்": 1468,
      "](https://ta.wikipedia.org/wiki/பன்னாட்டுத்_தர_தொடர்_எண்": 1469,
      "धान": 1470,
      "वा": 1471,
      "ोत": 1472,
      "ல்க": 1473,
      "eng": 1474,
      "▁இரு": 1475,
      "ath": 1476,
      "oli": 1477,
      "](https://en.wikipedia.org/wiki/A": 1478,
      "भि": 1479,
      "श्": 1480,
      "▁ర": 1481,
      "tates": 1482,
      "ated": 1483,
      "world": 1484,
      "xford": 1485,
      "ர்க": 1486,
      "ற்ப": 1487,
      "8.": 1488,
      "cl": 1489,
      "▁whi": 1490,
      "ry": 1491,
      "ty": 1492,
      "धार": 1493,
      "ृत": 1494,
      "arget": 1495,
      "▁ने": 1496,
      "](https://en.wikipedia.org/wiki/E": 1497,
      "_p": 1498,
      "▁3": 1499,
      "▁[R": 1500,
      "10.": 1501,
      "▁De": 1502,
      "indi": 1503,
      "\").\n": 1504,
      "మా": 1505,
      "▁సా": 1506,
      "्रा": 1507,
      "భారతీయ": 1508,
      "led": 1509,
      "tin": 1510,
      "▁\"List": 1511,
      "▁இது": 1512,
      "stan": 1513,
      "▁[ISBN](https://ta.wikipedia.org/wiki/பன்னாட்டுத்_தர_தொடர்_எண்": 1514,
      "/http://": 1515,
      "_ம": 1516,
      "వా": 1517,
      "lop": 1518,
      "विशेष": 1519,
      "43": 1520,
      "\"))": 1521,
      "ere": 1522,
      "](https://en.wikipedia.org/wiki/T": 1523,
      "india.gov": 1524,
      "▁\"G": 1525,
      "ric": 1526,
      "के": 1527,
      "రు": 1528,
      "लेख": 1529,
      "▁con": 1530,
      "_Asia": 1531,
      "ublic": 1532,
      "-b": 1533,
      "ition": 1534,
      "ார்": 1535,
      "▁[अ": 1536,
      "ற்கு": 1537,
      "▁[G": 1538,
      "\"\n": 1539,
      "వి": 1540,
      "ష్ట": 1541,
      "▁१": 1542,
      "▁\"R": 1543,
      "ార్": 1544,
      "ीय_": 1545,
      "పూ.": 1546,
      "tal": 1547,
      "end": 1548,
      "lec": 1549,
      "57": 1550,
      "ions": 1551,
      "ंद": 1552,
      "ंत्र": 1553,
      "ूल": 1554,
      "ेल": 1555,
      "▁\"अ": 1556,
      "ange": 1557,
      "▁ति": 1558,
      "క్ష": 1559,
      "conomy": 1560,
      "▁एक": 1561,
      "\"](https://web.archive.org/web/201": 1562,
      "/https://www.": 1563,
      "▁இந்திய": 1564,
      "▁199": 1565,
      "000": 1566,
      "Dw": 1567,
      "ரிய": 1568,
      "▁7": 1569,
      "▁[भारत": 1570,
      "his": 1571,
      "▁पु": 1572,
      "స్థ": 1573,
      "రిత్ర": 1574,
      "विशेष:": 1575,
      "12": 1576,
      "ern": 1577,
      "List_of_": 1578,
      "](https://en.wikipedia.org/wiki/D": 1579,
      "க்கிய": 1580,
      "ountries": 1581,
      "RI": 1582,
      "▁18": 1583,
      "riti": 1584,
      "▁which": 1585,
      "ोग": 1586,
      "▁\"N": 1587,
      "ையில்": 1588,
      "ummit": 1589,
      "▁பு": 1590,
      "gen": 1591,
      "ult": 1592,
      "िण": 1593,
      "▁[the": 1594,
      "स्तान": 1595,
      "_E": 1596,
      "ple": 1597,
      "▁tr": 1598,
      "லைக்க": 1599,
      "▁–": 1600,
      "2014": 1601,
      "fe": 1602,
      "ய்": 1603,
      "▁li": 1604,
      "ties": 1605,
      "▁South": 1606,
      "న్న": 1607,
      "logy": 1608,
      "icial": 1609,
      "▁[E": 1610,
      "ous": 1611,
      "uly": 1612,
      "Stein1998": 1613,
      "ome": 1614,
      "ob": 1615,
      "▁[N": 1616,
      "▁பா": 1617,
      "ritish": 1618,
      "▁India's": 1619,
      "rou": 1620,
      "ीप": 1621,
      "▁\"ம": 1622,
      "3)": 1623,
      "dus": 1624,
      "4)": 1625,
      "ost": 1626,
      "tral": 1627,
      "59": 1628,
      "▁4": 1629,
      "250px-": 1630,
      "▁\"स": 1631,
      "ree": 1632,
      "ங்கள்": 1633,
      "▁प्रदेश": 1634,
      "Special:BookSources/978-1": 1635,
      "क्षिण": 1636,
      "-m": 1637,
      "Singh": 1638,
      "▁[978-1": 1639,
      "port": 1640,
      "sv": 1641,
      "▁[T": 1642,
      "गमन": 1643,
      "थि": 1644,
      "திய": 1645,
      "▁[स": 1646,
      "▁[↑](https://hi.wikipedia.org/wiki/भारत#cite_ref-": 1647,
      "DP": 1648,
      "iki": 1649,
      "\"](https://www.": 1650,
      "▁has": 1651,
      "yson": 1652,
      "டிய": 1653,
      "2)": 1654,
      "hy": 1655,
      "man": 1656,
      "ove": 1657,
      "द्य": 1658,
      "नी": 1659,
      "ी_स": 1660,
      "சா": 1661,
      "▁तिथि": 1662,
      "..": 1663,
      "▁pe": 1664,
      ".;": 1665,
      "qu": 1666,
      "United": 1667,
      "0.": 1668,
      "_F": 1669,
      "hist": 1670,
      "▁2014": 1671,
      "/978": 1672,
      "a\")": 1673,
      "ँच": 1674,
      "यु": 1675,
      "ून": 1676,
      "గా": 1677,
      "isher": 1678,
      "69": 1679,
      "_ந": 1680,
      "oh": 1681,
      "▁[K": 1682,
      "mund": 1683,
      "](https://en.wikipedia.org/wiki/R": 1684,
      "pire": 1685,
      "othermund": 1686,
      "58": 1687,
      "ంట": 1688,
      "కి": 1689,
      "▁ख": 1690,
      "rap": 1691,
      "html": 1692,
      "▁तिथि:": 1693,
      "521": 1694,
      "ali": 1695,
      "ood": 1696,
      "row": 1697,
      "-d": 1698,
      "ate_": 1699,
      "ug": 1700,
      "தே": 1701,
      "](https://en.wikipedia.org/wiki/G": 1702,
      "velop": 1703,
      "ef": 1704,
      "mber": 1705,
      "51": 1706,
      "மி": 1707,
      "మ్రా": 1708,
      "▁pro": 1709,
      "திப்ப": 1710,
      "▁भारतीय": 1711,
      "ష్ట్ర": 1712,
      "lia": 1713,
      "▁ter": 1714,
      "▁U": 1715,
      "▁சம": 1716,
      "▁ஆக": 1717,
      "▁[Archived": 1718,
      "Singh2009": 1719,
      "▁[Archived](https://": 1720,
      "_the": 1721,
      "▁v": 1722,
      "68": 1723,
      "जन": 1724,
      "ढ़": 1725,
      "धिक": 1726,
      "ంత": 1727,
      "▁\"The": 1728,
      "](https://en.wikipedia.org/wiki/N": 1729,
      "த்தின்": 1730,
      "ulke": 1731,
      "▁अभि": 1732,
      "▁देश": 1733,
      "template": 1734,
      "▁अभिगमन": 1735,
      "mer": 1736,
      "doi": 1737,
      "in-": 1738,
      "\\_with": 1739,
      "elhi": 1740,
      "aw": 1741,
      "धर्म": 1742,
      "ால்": 1743,
      "](https://ta.wikipedia.org/wiki/ம": 1744,
      "्री": 1745,
      "्रोत": 1746,
      "▁जन": 1747,
      "▁History": 1748,
      "▁तथा": 1749,
      "▁\"भारतीय": 1750,
      "\\_with\\_": 1751,
      "Talbot": 1752,
      "ach": 1753,
      "AsherTalbot": 1754,
      "ah": 1755,
      "hand": 1756,
      "arg": 1757,
      "idge": 1758,
      "ign": 1759,
      "0%": 1760,
      "त्": 1761,
      "बर": 1762,
      "పు": 1763,
      "▁च": 1764,
      "pend": 1765,
      "ten": 1766,
      "▁\"क": 1767,
      "▁हैं।": 1768,
      "/artic": 1769,
      "uary": 1770,
      "](https://en.wikipedia.org/wiki/List_of_": 1771,
      "▁2021": 1772,
      "![](https://upload.wikimedia.org/wikipedia/commons/thumb/": 1773,
      "▁its": 1774,
      "ountry": 1775,
      ".nic": 1776,
      "ms": 1777,
      "5)": 1778,
      "ती": 1779,
      "हर": 1780,
      "ूर्व": 1781,
      "्ल": 1782,
      "▁న": 1783,
      "▁பிர": 1784,
      "ack": 1785,
      "களின்": 1786,
      "na": 1787,
      "2005": 1788,
      "ames": 1789,
      "▁July": 1790,
      "▁[ம": 1791,
      "census": 1792,
      "वं": 1793,
      "మి": 1794,
      "ాన": 1795,
      "](https://hi.wikipedia.org/wiki/क": 1796,
      "ase": 1797,
      "स्तक": 1798,
      "पुस्तक": 1799,
      "विशेष:पुस्तक": 1800,
      "्रोत/978": 1801,
      "onstitution": 1802,
      "](Special:BookSources/978-0-": 1803,
      "▁\"In": 1804,
      "▁\"Special:BookSources/978-0-": 1805,
      "ined": 1806,
      "▁2010": 1807,
      "illi": 1808,
      "▁நி": 1809,
      "par": 1810,
      "2003": 1811,
      "_அ": 1812,
      "duc": 1813,
      "मान": 1814,
      "పా": 1815,
      "▁ఇ": 1816,
      "▁త": 1817,
      "alth": 1818,
      "ater": 1819,
      "िका": 1820,
      "▁जा": 1821,
      ".jpg/250px-": 1822,
      "राष्ट्रीय": 1823,
      "భాష": 1824,
      "द्ध": 1825,
      "velopment": 1826,
      "62": 1827,
      "IN": 1828,
      "mpire": 1829,
      "sland": 1830,
      "▁2": 1831,
      "aste": 1832,
      "news/": 1833,
      "ொழி": 1834,
      "6)": 1835,
      "120": 1836,
      "दी": 1837,
      "रकार": 1838,
      "हार": 1839,
      "றி": 1840,
      "▁8": 1841,
      "on-": 1842,
      "](https://hi.wikipedia.org/wiki/स": 1843,
      "▁17": 1844,
      "पुर": 1845,
      "RICS": 1846,
      "/c": 1847,
      "1_": 1848,
      "gion": 1849,
      "une": 1850,
      "earch": 1851,
      "கை": 1852,
      "கப்": 1853,
      "த்தில்": 1854,
      "▁அமை": 1855,
      "ound": 1856,
      ".jpg)\n": 1857,
      "ட்சி": 1858,
      "ope": 1859,
      "](https://en.wikipedia.org/wiki/India#cite_ref-": 1860,
      "-81": 1861,
      "ile:": 1862,
      "C&pg=PA": 1863,
      "పాల": 1864,
      "లీ": 1865,
      "▁राज": 1866,
      "▁[क": 1867,
      "▁\"ब": 1868,
      "▁செ": 1869,
      "▁2007": 1870,
      "विश्व": 1871,
      "▁इस": 1872,
      "▁te": 1873,
      "▁\"H": 1874,
      "hel": 1875,
      "india-": 1876,
      "▁original](https://": 1877,
      "pril": 1878,
      "_க": 1879,
      "ure": 1880,
      "orth": 1881,
      "any": 1882,
      "197": 1883,
      "ulture": 1884,
      "bridge": 1885,
      "ledge": 1886,
      "son": 1887,
      ".nic.in/": 1888,
      "World": 1889,
      "ஞ்": 1890,
      "▁దేశ": 1891,
      "isation": 1892,
      "▁मेला": 1893,
      "த்திய": 1894,
      "స్తా": 1895,
      "ல்கலைக்க": 1896,
      "ல்கலைக்கழ": 1897,
      "hr": 1898,
      "ambridge": 1899,
      "usin": 1900,
      "_d": 1901,
      "▁\"த": 1902,
      "க்கி": 1903,
      "akistan": 1904,
      "திப்பகம்": 1905,
      "File:": 1906,
      "dit": 1907,
      "गु": 1908,
      "கிற": 1909,
      "மான": 1910,
      "వర్": 1911,
      "ాయ": 1912,
      "▁स्": 1913,
      "रालेख": 1914,
      "tinent": 1915,
      "shi": 1916,
      "ansk": 1917,
      "cto": 1918,
      "ib": 1919,
      "▁Octo": 1920,
      "▁October": 1921,
      "ice": 1922,
      "lection": 1923,
      "05": 1924,
      "ा_": 1925,
      "िव": 1926,
      "▁at": 1927,
      "▁\"प": 1928,
      "▁हु": 1929,
      "_की_स": 1930,
      "▁वर्": 1931,
      "_में": 1932,
      "amil": 1933,
      "ury": 1934,
      "do-": 1935,
      "ashm": 1936,
      "44": 1937,
      "ஆம்": 1938,
      "மாக": 1939,
      "▁(201": 1940,
      "▁sub": 1941,
      "த்தி": 1942,
      "_m": 1943,
      "ace": 1944,
      "anskrit": 1945,
      "oi": 1946,
      "ध्य": 1947,
      "्च": 1948,
      "ன.": 1949,
      "▁[ब": 1950,
      "▁[த": 1951,
      "](https://hi.wikipedia.org/wiki/अ": 1952,
      "](https://ta.wikipedia.org/wiki/த": 1953,
      "र्थ": 1954,
      "ச்சி": 1955,
      "odern": 1956,
      "स्क": 1957,
      "ंग्रेज़": 1958,
      "మ్రాజ్యం": 1959,
      "रालेखित": 1960,
      "aman": 1961,
      "val": 1962,
      "▁un": 1963,
      "▁\"க": 1964,
      "குப்பு": 1965,
      "ill": 1966,
      "old": 1967,
      "india/": 1968,
      "ज्": 1969,
      "](File:": 1970,
      "దేశ్": 1971,
      "▁भी": 1972,
      "DwAAQBAJ&pg=PA": 1973,
      "▁\"Indian": 1974,
      "omb": 1975,
      "South_Asia": 1976,
      ".sv": 1977,
      "65": 1978,
      "வன": 1979,
      "tain": 1980,
      "ed.": 1981,
      "age/": 1982,
      "குப்பு:": 1983,
      "[![](https://upload.wikimedia.org/wikipedia/commons/thumb/": 1984,
      "s-": 1985,
      "ograp": 1986,
      "7)": 1987,
      "_भारत": 1988,
      "थान": 1989,
      "हास": 1990,
      "िट": 1991,
      "िश": 1992,
      "ం](https://te.wikipedia.org/wiki/": 1993,
      "▁[L": 1994,
      "▁\"இந்தியா": 1995,
      "ட்டி": 1996,
      "▁Hindu": 1997,
      "चित्र": 1998,
      "_L": 1999,
      "a,": 2000,
      "▁ha": 2001,
      "▁were": 2002,
      "outledge": 2003,
      "்ட்": 2004,
      "](https://en.wikipedia.org/wiki/India#cite_ref-FOOTNOTE": 2005,
      "usic": 2006,
      "▁\"K": 2007,
      "uring": 2008,
      "tical": 2009,
      "###": 2010,
      "att": 2011,
      "aper": 2012,
      "o-": 2013,
      "rg": 2014,
      "द्र": 2015,
      "फ़": 2016,
      "ुख": 2017,
      "ைக்": 2018,
      "ంబ": 2019,
      "టి": 2020,
      "▁[க": 2021,
      "](https://hi.wikipedia.org/wiki/ब": 2022,
      "ப்படு": 2023,
      "ternational": 2024,
      "irst": 2025,
      "continent": 2026,
      "lish": 2027,
      "னி": 2028,
      "ுள்ள": 2029,
      "erv": 2030,
      "▁இந்தியாவின்": 2031,
      "▁25": 2032,
      "urope": 2033,
      "plate_": 2034,
      "ran": 2035,
      "शिया": 2036,
      "வாக": 2037,
      "ாட": 2038,
      "ோர": 2039,
      "ంలో": 2040,
      "ese": 2041,
      "ட்டியல்": 2042,
      "](https://hi.wikipedia.org/wiki/भारत_में": 2043,
      "harma": 2044,
      "roup": 2045,
      "స్తాన్": 2046,
      "RC": 2047,
      "▁26": 2048,
      ".\"\n": 2049,
      "பகுப்பு:": 2050,
      "rov": 2051,
      "▁./பகுப்பு:": 2052,
      "data": 2053,
      "pur": 2054,
      "▁ad": 2055,
      "](https://en.wikipedia.org/wiki/H": 2056,
      "](https://en.wikipedia.org/wiki/In": 2057,
      "ing\\_": 2058,
      "▁New": 2059,
      "ligion": 2060,
      "Oxford": 2061,
      "Rothermund": 2062,
      "ीन": 2063,
      "னர்": 2064,
      "గు": 2065,
      "డు": 2066,
      "నే": 2067,
      "్చ": 2068,
      "▁सम": 2069,
      "▁हि": 2070,
      "त्तर": 2071,
      "\")*.": 2072,
      "alay": 2073,
      "▁An": 2074,
      "98": 2075,
      "தன்": 2076,
      "னை": 2077,
      "330": 2078,
      "▁[H": 2079,
      "2023": 2080,
      "ters": 2081,
      "india.gov.in/": 2082,
      "मिल": 2083,
      "ुस": 2084,
      "మూ": 2085,
      "](https://ta.wikipedia.org/wiki/க": 2086,
      "▁सूची": 2087,
      "▁se": 2088,
      "్రీ": 2089,
      "ும்.": 2090,
      "_and_": 2091,
      "ission": 2092,
      "జాత": 2093,
      "%28": 2094,
      "%29": 2095,
      "4%": 2096,
      "மம்": 2097,
      "ari": 2098,
      "ல்ல": 2099,
      "](https://ta.wikipedia.org/wiki/இந்தியா#cite_ref-FOOTNOTE": 2100,
      "inistry": 2101,
      "*,": 2102,
      "Kulke": 2103,
      "Wiki": 2104,
      "air": 2105,
      "ces": 2106,
      "PP": 2107,
      "ne": 2108,
      "uk": 2109,
      "रु": 2110,
      "ूच": 2111,
      "ूर": 2112,
      "లా": 2113,
      "▁[प": 2114,
      "▁\"ச": 2115,
      "omp": 2116,
      "▁கா": 2117,
      "ంగా": 2118,
      "1/": 2119,
      "▁மா": 2120,
      "ற்று": 2121,
      "E0%": 2122,
      "year": 2123,
      "कर": 2124,
      "ते": 2125,
      "డ్": 2126,
      "ిల్": 2127,
      "▁జ": 2128,
      "ork": 2129,
      "▁सरकार": 2130,
      "▁10": 2131,
      "▁ஆண்டு": 2132,
      "tember": 2133,
      "eptember": 2134,
      "ho": 2135,
      "ot": 2136,
      "▁le": 2137,
      "ort": 2138,
      "emplate": 2139,
      "ishing": 2140,
      "100": 2141,
      "national": 2142,
      "ளி": 2143,
      "▁து": 2144,
      "▁வெ": 2145,
      "1994": 2146,
      "▁retrieved": 2147,
      "/0": 2148,
      "_c": 2149,
      "▁[F": 2150,
      "radesh": 2151,
      "KulkeRothermund": 2152,
      "ite": 2153,
      "पाल": 2154,
      "हु": 2155,
      "ा:": 2156,
      "ैद": 2157,
      "ोक": 2158,
      "లి": 2159,
      "▁घ": 2160,
      "▁२": 2161,
      "▁\"L": 2162,
      "▁Mar": 2163,
      "స్త్ర": 2164,
      "▁तक": 2165,
      "▁World": 2166,
      "साँच": 2167,
      "किस्तान": 2168,
      "2_": 2169,
      "](https://books.google.com/books?id=": 2170,
      "\"))\n": 2171,
      "](https://en.wikipedia.org/wiki/K": 2172,
      "▁April": 2173,
      "▁languages": 2174,
      "/p": 2175,
      "Edit": 2176,
      "Page/": 2177,
      "ழ்": 2178,
      "ourc": 2179,
      "ன்று": 2180,
      "ட்டு": 2181,
      "▁Comm": 2182,
      "▁கால": 2183,
      "சியா": 2184,
      "Stein2010": 2185,
      "EditPage/": 2186,
      "pic": 2187,
      "▁15": 2188,
      "_by": 2189,
      "pu": 2190,
      "्ड": 2191,
      "விய": 2192,
      "కా": 2193,
      "ణా": 2194,
      "దక్ష": 2195,
      "ధిక": 2196,
      "](https://hi.wikipedia.org/wiki/भारतीय_": 2197,
      "▁ప్రా": 2198,
      "▁2006": 2199,
      "ople": 2200,
      "▁వి": 2201,
      "▁Asian": 2202,
      "సియా": 2203,
      "జాతీయ": 2204,
      "2-0)": 2205,
      "▁Aug": 2206,
      "▁August": 2207,
      "_language": 2208,
      "ram": 2209,
      "ணை": 2210,
      "▁[In": 2211,
      "AARC": 2212,
      "9)": 2213,
      "▁com": 2214,
      "198": 2215,
      "▁pl": 2216,
      "▁Archived": 2217,
      "iron": 2218,
      "berg": 2219,
      "AsherTalbot2008": 2220,
      "8/": 2221,
      "ck": 2222,
      "न\")": 2223,
      "सम": 2224,
      "மைய": 2225,
      "వం": 2226,
      "▁பகு": 2227,
      "lim": 2228,
      "ों_की_स": 2229,
      "▁సం": 2230,
      "▁చరిత్ర": 2231,
      "श्चि": 2232,
      "help": 2233,
      "Dyson": 2234,
      "_H": 2235,
      "tive": 2236,
      "tation": 2237,
      "ght": 2238,
      "_ஆ": 2239,
      "நில": 2240,
      "king": 2241,
      "▁2018": 2242,
      "▁அர": 2243,
      "▁2009": 2244,
      "டிமம்": 2245,
      "ongress": 2246,
      "டிமம்:": 2247,
      "-20": 2248,
      "▁cent": 2249,
      "ashmir": 2250,
      "ओं": 2251,
      "गण": 2252,
      "ीं": 2253,
      "ूप": 2254,
      "డి": 2255,
      "▁\"சிறப்பு:BookSources/978-0-": 2256,
      "](https://hi.wikipedia.org/wiki/प": 2257,
      "](https://ta.wikipedia.org/wiki/சிறப்பு:BookSources/978-0-": 2258,
      "▁வே": 2259,
      "ச்ச": 2260,
      "]](https://hi.wikipedia.org/wiki/भारत#cite_note-FOOTNOTE": 2261,
      "_3": 2262,
      "▁24": 2263,
      "chw": 2264,
      "_Indian_": 2265,
      "Comb": 2266,
      "yn": 2267,
      "வெ": 2268,
      "▁9": 2269,
      "](https://ta.wikipedia.org/wiki/ச": 2270,
      "க்கப்பட்ட": 2271,
      "\\_errors": 2272,
      "](https://ta.wikipedia.org/wiki/படிமம்:": 2273,
      "Combined": 2274,
      "viron": 2275,
      "▁21": 2276,
      "▁em": 2277,
      "▁September": 2278,
      "umber": 2279,
      "line": 2280,
      "vironment": 2281,
      "-26": 2282,
      "_K": 2283,
      "uj": 2284,
      "रब": 2285,
      "्स": 2286,
      "ంధ": 2287,
      "▁किया": 2288,
      "▁மி": 2289,
      "▁நில": 2290,
      "స్త": 2291,
      "नाम": 2292,
      "matics": 2293,
      "_के_राज्य": 2294,
      ".jpg)](File:": 2295,
      "▁రాజ్యం": 2296,
      "▁సామ్రాజ్యం": 2297,
      "ंदिर": 2298,
      "వర్గ": 2299,
      "దక్షి": 2300,
      "-in-": 2301,
      "_%28": 2302,
      "இல்": 2303,
      "டைய": 2304,
      "▁இந்த": 2305,
      "▁errors": 2306,
      "▁[ச": 2307,
      "eneral": 2308,
      "and\\_": 2309,
      "no-": 2310,
      "\\_and\\_": 2311,
      "▁this": 2312,
      "Harle": 2313,
      "_and_S": 2314,
      "▁([help": 2315,
      "](http://www.": 2316,
      "▁errors\"))\n": 2317,
      ",000": 2318,
      "77": 2319,
      "entral": 2320,
      "ritory": 2321,
      "7-1": 2322,
      "_प्र": 2323,
      "target": 2324,
      "दक्षिण": 2325,
      "ष्": 2326,
      "மெ": 2327,
      "దీ": 2328,
      "now": 2329,
      "▁India,": 2330,
      "ர்\")": 2331,
      "▁சு": 2332,
      "्वीप": 2333,
      "ect": 2334,
      "ండి": 2335,
      "ज्ञ": 2336,
      "వర్గం:": 2337,
      "121": 2338,
      "1-0)": 2339,
      "_at": 2340,
      "ision": 2341,
      "raven": 2342,
      "_Press": 2343,
      "illion": 2344,
      "4-0)": 2345,
      "தார": 2346,
      "▁\"F": 2347,
      "ley": 2348,
      "▁May": 2349,
      "oll": 2350,
      "▁En": 2351,
      "ரிக்க": 2352,
      "lass": 2353,
      "zberg": 2354,
      "artzberg": 2355,
      "ystem": 2356,
      "chwartzberg": 2357,
      "%E0%": 2358,
      "-l": 2359,
      "Ar": 2360,
      "ंजा": 2361,
      "ख्या": 2362,
      "जी": 2363,
      "वन": 2364,
      "பு": 2365,
      "తర": 2366,
      "ది": 2367,
      "▁బ": 2368,
      "க்கள்": 2369,
      "ates": 2370,
      "▁Metcalf": 2371,
      "न्न": 2372,
      "peration": 2373,
      "▁भाषा\")": 2374,
      "▁खाना": 2375,
      "330px-": 2376,
      "ों_की_सूची": 2377,
      "Dyson2018": 2378,
      "ंजाब": 2379,
      "cies": 2380,
      "ade": 2381,
      "fter": 2382,
      "rd": 2383,
      "மு": 2384,
      "▁\"அ": 2385,
      "off": 2386,
      "imes": 2387,
      "▁(PDF)": 2388,
      "3-0)": 2389,
      "Sfn": 2390,
      "▁16": 2391,
      "uman": 2392,
      "1,": 2393,
      "31": 2394,
      "बसे": 2395,
      "ुल": 2396,
      "ట్": 2397,
      "ిత": 2398,
      "▁ri": 2399,
      "▁India:": 2400,
      "▁மே": 2401,
      "ेंद्र": 2402,
      "](https://hi.wikipedia.org/wiki/भारत_क": 2403,
      "திக": 2404,
      "Union": 2405,
      "web.archive.org/web/20": 2406,
      "▁गया": 2407,
      "சிறப்பு:BookSources/978-1": 2408,
      "▁राज्यों": 2409,
      "▁பொரு": 2410,
      "udden": 2411,
      "slands": 2412,
      "▁Pl": 2413,
      "▁2019": 2414,
      "▁2023": 2415,
      "ower": 2416,
      ":[": 2417,
      "போர": 2418,
      "ளா": 2419,
      "▁error": 2420,
      "ories": 2421,
      "tec": 2422,
      "களில்": 2423,
      "▁have": 2424,
      "▁error:": 2425,
      "/A": 2426,
      "iff": 2427,
      "mb": 2428,
      "▁dis": 2429,
      "_చ": 2430,
      "fn_": 2431,
      "चल": 2432,
      "बंध": 2433,
      "உலக": 2434,
      "ం\")": 2435,
      "▁சி": 2436,
      "▁template": 2437,
      "▁\"మ": 2438,
      "ide": 2439,
      "\\_no-": 2440,
      "▁Sfn": 2441,
      "▁கோ": 2442,
      "▁தொ": 2443,
      "▁हो": 2444,
      "-80": 2445,
      "▁नि": 2446,
      "template_": 2447,
      "न्द्र": 2448,
      "▁[मूल": 2449,
      "ियों": 2450,
      "▁target": 2451,
      "ింది.": 2452,
      "\\_errors\n": 2453,
      "\\_and\\_Sfn": 2454,
      "_and_Sfn_": 2455,
      "target\\_errors\n": 2456,
      "\\_no-target\\_errors\n": 2457,
      "template_errors": 2458,
      "▁target:": 2459,
      "\\_and\\_Sfn\\_no-target\\_errors\n": 2460,
      "_and_Sfn_template_errors": 2461,
      "Pages": 2462,
      "ince": 2463,
      "lear": 2464,
      "times.com/": 2465,
      "ன.[[": 2466,
      "ரை": 2467,
      "](https://en.wikipedia.org/wiki/L": 2468,
      "▁Chin": 2469,
      "▁மூ": 2470,
      "▁cons": 2471,
      "ங்கு": 2472,
      "▁June": 2473,
      "▁கொண்டு": 2474,
      "▁இருந்த": 2475,
      "uch": 2476,
      "ori": 2477,
      "2001": 2478,
      "▁ch": 2479,
      "low": 2480,
      "to-": 2481,
      "ticles": 2482,
      "usiness": 2483,
      "-c": 2484,
      "07": 2485,
      "2/": 2486,
      "how": 2487,
      "ब्": 2488,
      "िन": 2489,
      "–1": 2490,
      "▁ఎ": 2491,
      "▁[W": 2492,
      "▁[మ": 2493,
      "\").[[": 2494,
      "2000": 2495,
      "▁सबसे": 2496,
      "▁CITEREF": 2497,
      "த்தான": 2498,
      "ालय": 2499,
      "▁உலக": 2500,
      "स्था": 2501,
      "चीन": 2502,
      "▁(సా.శ.పూ.": 2503,
      "▁पुरालेखित": 2504,
      "चित्र:": 2505,
      "▁सूची\")": 2506,
      "▁पुरालेखित।": 2507,
      "_re": 2508,
      "mar": 2509,
      "ugh": 2510,
      "▁22": 2511,
      "int": 2512,
      "ond": 2513,
      "brary": 2514,
      "-g": 2515,
      "ority": 2516,
      "▁பதிப்பகம்": 2517,
      "க்ஸ்": 2518,
      ".jpg)](https://ta.wikipedia.org/wiki/படிமம்:": 2519,
      ".india": 2520,
      "1–": 2521,
      "▁6": 2522,
      "▁year": 2523,
      "uclear": 2524,
      "Pages\\_": 2525,
      "_f": 2526,
      "ution": 2527,
      "जरा": 2528,
      "ेव": 2529,
      "ैन": 2530,
      "வே": 2531,
      "ధ్య": 2532,
      "▁గ": 2533,
      "▁శ": 2534,
      "▁[இந்திய": 2535,
      "](https://hi.wikipedia.org/wiki/चित्र:": 2536,
      "](https://ta.wikipedia.org/wiki/அ": 2537,
      "▁பல்கலைக்கழ": 2538,
      "▁sfn": 2539,
      "▁par": 2540,
      "act": 2541,
      "ின்ற": 2542,
      "▁அதிக": 2543,
      "ियाँ": 2544,
      "here": 2545,
      "ంద్ర": 2546,
      "क्ति": 2547,
      "ped": 2548,
      "cience": 2549,
      "▁(PDF).": 2550,
      "பா": 2551,
      "ைப்": 2552,
      "nglish": 2553,
      "history": 2554,
      "liament": 2555,
      "_4": 2556,
      "a/": 2557,
      "ka": 2558,
      "2019": 2559,
      "](https://en.wikipedia.org/wiki/Indian_": 2560,
      "▁into": 2561,
      "▁[978-0-19": 2562,
      "ikshi": 2563,
      "\")*,": 2564,
      "ikshit": 2565,
      "8)": 2566,
      "_W": 2567,
      "rac": 2568,
      "प्त": 2569,
      "ोर": 2570,
      "।[[": 2571,
      "கி": 2572,
      "ైన": 2573,
      "▁[उ": 2574,
      "er,": 2575,
      "](https://en.wikipedia.org/wiki/F": 2576,
      "▁their": 2577,
      "](https://te.wikipedia.org/wiki/మ": 2578,
      "▁மொழி": 2579,
      "▁పే": 2580,
      "▁जिस": 2581,
      "▁உரு": 2582,
      "▁Empire": 2583,
      "▁प्रा": 2584,
      "स्थान": 2585,
      "ative": 2586,
      "ुसार": 2587,
      "-f": 2588,
      "85": 2589,
      "dom": 2590,
      "pt": 2591,
      "▁ag": 2592,
      "igh": 2593,
      "odi": 2594,
      "▁government": 2595,
      "also": 2596,
      "argest": 2597,
      "cre": 2598,
      "gis": 2599,
      "ire": 2600,
      "ote": 2601,
      "ஒக்ஸ்": 2602,
      "மானது": 2603,
      "ியா": 2604,
      "ofindia": 2605,
      "-17": 2606,
      "▁2012": 2607,
      "anges": 2608,
      "-2)": 2609,
      "fficial": 2610,
      ".jpg/330px-": 2611,
      "ர்கள்": 2612,
      "ographi": 2613,
      "போர்ட்": 2614,
      "ஒக்ஸ்போர்ட்": 2615,
      "ool": 2616,
      "lob": 2617,
      "ayan": 2618,
      "▁[*A": 2619,
      "%2F": 2620,
      "_ச": 2621,
      "ocial": 2622,
      "च्च": 2623,
      "ण्ड": 2624,
      "वरी": 2625,
      "ట్ట": 2626,
      "హింద": 2627,
      "▁Y": 2628,
      "▁భారతదేశం": 2629,
      "annic": 2630,
      "ural": 2631,
      "ween": 2632,
      "](https://hi.wikipedia.org/wiki/भारत#CITEREF": 2633,
      "etween": 2634,
      "▁நீ": 2635,
      "▁region": 2636,
      "▁2022": 2637,
      "_सं": 2638,
      "ritannic": 2639,
      "ంగ్": 2640,
      "▁है।\n": 2641,
      "ublishing": 2642,
      "▁साथ": 2643,
      "ద్ధ": 2644,
      "](https://hi.wikipedia.org/wiki/भारत_में_": 2645,
      "%E0%A": 2646,
      "▁பல்கலைக்கழகப்": 2647,
      ".html": 2648,
      "ology": 2649,
      "ya": 2650,
      "▁[3": 2651,
      "10.10": 2652,
      "/http://www.": 2653,
      "uropean": 2654,
      ".indiatimes.com/": 2655,
      "32": 2656,
      "_In": 2657,
      "▁[Metcalf": 2658,
      "▁\"J": 2659,
      "்கள்": 2660,
      "210": 2661,
      "ும்,": 2662,
      "cember": 2663,
      "▁**[": 2664,
      "▁Jan": 2665,
      "▁subcontinent": 2666,
      "4–": 2667,
      "han": 2668,
      "pos": 2669,
      "cient": 2670,
      "avid": 2671,
      "-23": 2672,
      "ie": 2673,
      "आई": 2674,
      "ाम": 2675,
      "ించ": 2676,
      "▁ఒ": 2677,
      "▁it": 2678,
      "▁था": 2679,
      "▁धर्म": 2680,
      "▁భాష": 2681,
      "](Special:BookSources/978-1": 2682,
      "▁[క": 2683,
      "▁\"श्रेणी:Harv": 2684,
      "▁\"Special:BookSources/978-1": 2685,
      "](https://hi.wikipedia.org/wiki/श्रेणी:Harv": 2686,
      "▁सि": 2687,
      "ాల్": 2688,
      "याल": 2689,
      "्वर": 2690,
      "▁आधार": 2691,
      "▁./श्रेणी:Harv": 2692,
      "▁संघ": 2693,
      "aint": 2694,
      "▁பெரு": 2695,
      "पाकिस्तान": 2696,
      "view": 2697,
      "▁([help](https://hi.wikipedia.org/wiki/श्रेणी:Harv": 2698,
      "_and_Sfn_template_errors?action=edit&redlink=1": 2699,
      "▁./श्रेणी:Harv\\_and\\_Sfn\\_no-target\\_errors\n": 2700,
      "▁([help](https://hi.wikipedia.org/wiki/श्रेणी:Harv_and_Sfn_template_errors?action=edit&redlink=1": 2701,
      "ive": 2702,
      "jab": 2703,
      "uis": 2704,
      "ritories": 2705,
      "ளர்": 2706,
      "▁k": 2707,
      "▁ஊ": 2708,
      "▁ஓ": 2709,
      "▁us": 2710,
      "▁also": 2711,
      "▁[J": 2712,
      "▁[அ": 2713,
      "ிரை": 2714,
      "▁2008": 2715,
      "ள்ளது.": 2716,
      "ffair": 2717,
      "வார்": 2718,
      "▁ஆகிய": 2719,
      "doi.org/": 2720,
      "emplate:": 2721,
      "மெரிக்க": 2722,
      "500": 2723,
      "oor": 2724,
      "van": 2725,
      "idd": 2726,
      "▁first": 2727,
      "ats": 2728,
      "▁./Category:": 2729,
      "▁Asia\")": 2730,
      "obb": 2731,
      "/f": 2732,
      "]](https://te.wikipedia.org/wiki/భారతదేశం": 2733,
      "की": 2734,
      "णा": 2735,
      "तंत्र": 2736,
      "्ला": 2737,
      "చ్చ": 2738,
      "జీ": 2739,
      "ేంద్ర": 2740,
      "▁23": 2741,
      "▁विश्व": 2742,
      "▁\"उ": 2743,
      "▁\"క": 2744,
      "ally": 2745,
      "](https://hi.wikipedia.org/wiki/उ": 2746,
      "्यट": 2747,
      "entre": 2748,
      "▁நட": 2749,
      "ிரா": 2750,
      "ाली": 2751,
      "ேரரசு": 2752,
      "engal": 2753,
      "श्मी": 2754,
      "ர்கள": 2755,
      "-21": 2756,
      "5-0)": 2757,
      "cri": 2758,
      "la": 2759,
      "▁off": 2760,
      "▁Population": 2761,
      "thern": 2762,
      "National": 2763,
      "▁\"South": 2764,
      "omen": 2765,
      "tra": 2766,
      "▁[Stein": 2767,
      "▁பொது": 2768,
      "தேச": 2769,
      "53": 2770,
      "cms": 2771,
      "rish": 2772,
      "anisation": 2773,
      "tail": 2774,
      "ise": 2775,
      "emb": 2776,
      ".svg": 2777,
      "▁Commission": 2778,
      "-re": 2779,
      "6-0)": 2780,
      "CE": 2781,
      "ibrary": 2782,
      "ंब": 2783,
      "गढ़": 2784,
      "ज्य": 2785,
      "तमिल": 2786,
      "दा": 2787,
      "भी": 2788,
      "वे": 2789,
      "ांग": 2790,
      "ेर": 2791,
      "ீன": 2792,
      "త్య": 2793,
      "బ్": 2794,
      "మీ": 2795,
      "▁[இ": 2796,
      "time": 2797,
      "्रिट": 2798,
      "2016": 2799,
      "ன்ப": 2800,
      "](https://te.wikipedia.org/wiki/ద": 2801,
      "▁வா": 2802,
      "▁world": 2803,
      "్యా": 2804,
      "▁अधिक": 2805,
      "▁நாடு": 2806,
      "రాష్ట్ర": 2807,
      "तिहास": 2808,
      "▁./వర్గం:": 2809,
      "▁१९": 2810,
      "युक्त": 2811,
      "स्कृत": 2812,
      "▁हिन्द": 2813,
      "/S": 2814,
      "Fisher": 2815,
      "_I": 2816,
      "▁al": 2817,
      "▁0.": 2818,
      "1997": 2819,
      "ummit\")": 2820,
      "Fisher2018": 2821,
      "fl": 2822,
      "மா": 2823,
      "ant": 2824,
      "thno": 2825,
      "துகா": 2826,
      "▁Pradesh": 2827,
      "▁2016": 2828,
      "chno": 2829,
      "-40": 2830,
      "▁been": 2831,
      "9-0)": 2832,
      "_University": 2833,
      "ton": 2834,
      "▁es": 2835,
      "wing": 2836,
      "▁system": 2837,
      "adition": 2838,
      "▁but": 2839,
      "▁[*The": 2840,
      "gency": 2841,
      "Articles": 2842,
      "%7": 2843,
      "fic": 2844,
      "में": 2845,
      "रे": 2846,
      "ంక": 2847,
      "ప్": 2848,
      "యు": 2849,
      "▁मान": 2850,
      "▁between": 2851,
      "iles/": 2852,
      "▁during": 2853,
      "▁बाद": 2854,
      "्वार": 2855,
      "▁2024": 2856,
      "ourn": 2857,
      "ports": 2858,
      "िल्ल": 2859,
      "leshow": 2860,
      "తంత్ర": 2861,
      "्राज्य": 2862,
      "▁\"இந்தியாவில்": 2863,
      "దక్షిణ": 2864,
      "leshow/": 2865,
      "81": 2866,
      "86": 2867,
      "▁ac": 2868,
      "estern": 2869,
      "asia": 2870,
      "_in_": 2871,
      "▁2020": 2872,
      "rits": 2873,
      "▁December": 2874,
      "-28": 2875,
      ":EditPage/": 2876,
      "CN": 2877,
      "bi": 2878,
      "ணு": 2879,
      "▁wi": 2880,
      "▁28": 2881,
      "▁\"O": 2882,
      "▁பர": 2883,
      "க்கும்": 2884,
      "▁தொட": 2885,
      "rop": 2886,
      "▁உய": 2887,
      "▁language\")": 2888,
      "▁[Archived](https://web.archive.org/web/201": 2889,
      "-language": 2890,
      "▁im": 2891,
      "](https://en.wikipedia.org/wiki/J": 2892,
      "▁part": 2893,
      "trib": 2894,
      "_స": 2895,
      "_और": 2896,
      "athe": 2897,
      "एं": 2898,
      "वर्": 2899,
      "शास": 2900,
      "தாக": 2901,
      "ுக்கு": 2902,
      "ூட்ட": 2903,
      "తము": 2904,
      "వే": 2905,
      "ష్": 2906,
      "ాన్": 2907,
      "▁कार": 2908,
      "#cite_note-1": 2909,
      "\\_s": 2910,
      "urr": 2911,
      "▁class": 2912,
      "unjab": 2913,
      "▁Talbot": 2914,
      "స్క": 2915,
      "ember": 2916,
      "क्षेत्र": 2917,
      "माण": 2918,
      "ड़ा": 2919,
      "▁शास": 2920,
      "म्ब": 2921,
      "▁साम": 2922,
      "▁यह": 2923,
      "▁[भारतीय": 2924,
      "ిల్లీ": 2925,
      "ज्ञान": 2926,
      "▁January": 2927,
      "88": 2928,
      "gy": 2929,
      "iver": 2930,
      "2012": 2931,
      "ures": 2932,
      "▁13": 2933,
      "rah": 2934,
      "indus": 2935,
      "\".": 2936,
      "GDP": 2937,
      "ft": 2938,
      "வர": 2939,
      "▁all": 2940,
      "\")**": 2941,
      "](https://ta.wikipedia.org/wiki/இந்தியாவில்": 2942,
      "▁countries": 2943,
      "▁இட": 2944,
      "e/": 2945,
      "edic": 2946,
      "icy": 2947,
      "#cite_ref-1": 2948,
      "ature": 2949,
      "olicy": 2950,
      "ritannica": 2951,
      "-19": 2952,
      "7_": 2953,
      "JP": 2954,
      "_भाषा": 2955,
      "तर": 2956,
      "ाट": 2957,
      "ரோ": 2958,
      "வது": 2959,
      "జి": 2960,
      "ధాన": 2961,
      "బె": 2962,
      "▁थ": 2963,
      "▁res": 2964,
      "▁\"विशेष:पुस्तक": 2965,
      "](https://hi.wikipedia.org/wiki/ISBN_(identifier)": 2966,
      "](https://hi.wikipedia.org/wiki/विशेष:पुस्तक": 2967,
      "▁स्रोत/978": 2968,
      "க்கா": 2969,
      "▁पा": 2970,
      "ారు": 2971,
      "▁தெ": 2972,
      "](https://hi.wikipedia.org/wiki/भारत_के_": 2973,
      "rab": 2974,
      "लाई": 2975,
      "_स्रोत/978": 2976,
      "▁[ISBN](https://hi.wikipedia.org/wiki/ISBN_(identifier)": 2977,
      "▁కా": 2978,
      "▁./श्रेणी:": 2979,
      "_के_आ": 2980,
      "▁రాజ": 2981,
      "▁लि": 2982,
      "ிருந்து": 2983,
      "साँचा:": 2984,
      "श्चिम": 2985,
      "ांग्ला": 2986,
      "chnology": 2987,
      "](https://hi.wikipedia.org/wiki/विशेष:पुस्तक_स्रोत/978": 2988,
      "_19": 2989,
      "oy": 2990,
      "public": 2991,
      "ule": 2992,
      "va": 2993,
      "wo": 2994,
      "eser": 2995,
      "▁Press\").": 2996,
      "▁not": 2997,
      "ovember": 2998,
      "Harle1994": 2999,
      "iddle": 3000,
      "_University_Press": 3001,
      "-to-": 3002,
      "ID": 3003,
      "ளைய": 3004,
      "ூர்": 3005,
      "ெடு": 3006,
      "▁population": 3007,
      "▁Cambridge": 3008,
      "டிப்பட": 3009,
      "%2C_": 3010,
      "▁original](https://www.": 3011,
      "mi": 3012,
      "▁en": 3013,
      "ale": 3014,
      "eds.": 3015,
      "▁Se": 3016,
      "form": 3017,
      "india.gov.in": 3018,
      "irect": 3019,
      "ffairs": 3020,
      "-25": 3021,
      "2–": 3022,
      "5_": 3023,
      "73": 3024,
      "7-0)": 3025,
      "Sharma": 3026,
      "ंप": 3027,
      "मुख": 3028,
      "ிழ": 3029,
      "దు": 3030,
      "మ్": 3031,
      "శ్": 3032,
      "▁27": 3033,
      "▁राष्ट्रीय": 3034,
      "2024": 3035,
      "](https://te.wikipedia.org/wiki/క": 3036,
      "▁Pro": 3037,
      "్యవ": 3038,
      ".com/news/": 3039,
      "▁जु": 3040,
      "▁है,": 3041,
      "ेश्वर": 3042,
      "▁For": 3043,
      "ంది.": 3044,
      "▁उप": 3045,
      "▁यु": 3046,
      "त्प": 3047,
      "गुजरा": 3048,
      "ूचना": 3049,
      "_प्रदेश": 3050,
      "_చరిత్ర": 3051,
      "्रिटिश": 3052,
      "▁Ar": 3053,
      "▁2017": 3054,
      "fore": 3055,
      "▁Fe": 3056,
      "_De": 3057,
      "hism": 3058,
      "▁March": 3059,
      "oci": 3060,
      "ொத்த": 3061,
      "▁'": 3062,
      "▁over": 3063,
      "▁more": 3064,
      "▁1950": 3065,
      "bruary": 3066,
      "tent": 3067,
      "415": 3068,
      "Craven": 3069,
      "one": 3070,
      "logue": 3071,
      "▁2014.\n": 3072,
      "▁years": 3073,
      "Craven1997": 3074,
      "-india": 3075,
      "_पर": 3076,
      "काल": 3077,
      "बाद": 3078,
      "रक्ष": 3079,
      "वाद": 3080,
      "ाष्ट्र": 3081,
      "ागर": 3082,
      "ोर्": 3083,
      "வர்": 3084,
      "ఢిల్లీ": 3085,
      "పంచ": 3086,
      "▁[सं": 3087,
      "▁[doi": 3088,
      "▁Ass": 3089,
      "▁Sh": 3090,
      "ారి": 3091,
      "िक्ष": 3092,
      "▁Th": 3093,
      "ங்காள": 3094,
      "_मेला": 3095,
      "नेमा": 3096,
      "pib": 3097,
      "ிரித்தான": 3098,
      "धार_पर": 3099,
      "द्योग": 3100,
      "हाराष्ट्र": 3101,
      "మూస": 3102,
      "_के_आधार_पर": 3103,
      "_के_आधार_पर_भारत": 3104,
      "4-7": 3105,
      "ban": 3106,
      "pp": 3107,
      "▁[I": 3108,
      "India)": 3109,
      "andhi": 3110,
      "▁Act": 3111,
      "▁form": 3112,
      "olitical": 3113,
      ".as": 3114,
      "76": 3115,
      "Schwartzberg": 3116,
      "ls": 3117,
      "ough": 3118,
      "ம்](https://ta.wikipedia.org/wiki/": 3119,
      "க்கள": 3120,
      "▁Ch": 3121,
      "▁இர": 3122,
      "த்_த": 3123,
      "▁[\"India": 3124,
      "▁(identifier)\"):[": 3125,
      "clud": 3126,
      "▁சமய": 3127,
      "censusindia.gov.in/": 3128,
      "thnologue": 3129,
      "79": 3130,
      "fr": 3131,
      "rin": 3132,
      "utt": 3133,
      "▁other": 3134,
      "ara": 3135,
      "tab": 3136,
      "▁me": 3137,
      "ligi": 3138,
      "99": 3139,
      "ron": 3140,
      "एशिया": 3141,
      "ली": 3142,
      "கின்ற": 3143,
      "వు": 3144,
      "▁30": 3145,
      "▁\"W": 3146,
      "▁\"భారతీయ": 3147,
      "are": 3148,
      "்த்த": 3149,
      "▁பார": 3150,
      "▁स्व": 3151,
      "▁मंदिर": 3152,
      "्यव": 3153,
      "adu": 3154,
      "▁தே": 3155,
      "wealth": 3156,
      "ung": 3157,
      "ையாக": 3158,
      "▁दक्षिण": 3159,
      "ंगा": 3160,
      "▁Oxford": 3161,
      "▁K.": 3162,
      "](https://te.wikipedia.org/wiki/భారతదేశం#cite_ref-": 3163,
      "/articleshow/": 3164,
      "ंग्रेज़ी": 3165,
      "▁पुरालेखित।.": 3166,
      "]](https://te.wikipedia.org/wiki/భారతదేశం#cite_note-": 3167,
      "ournal": 3168,
      "▁जुलाई": 3169,
      "▁February": 3170,
      "_के_आधार_पर_भारत_के_राज्य": 3171,
      "tis": 3172,
      "▁1.": 3173,
      "▁National": 3174,
      "▁[*India": 3175,
      "cyc": 3176,
      "KulkeRothermund2004": 3177,
      "TR": 3178,
      "_ter": 3179,
      "cat": 3180,
      "dis": 3181,
      "lad": 3182,
      "சை": 3183,
      "ஜ்": 3184,
      "ழு": 3185,
      "▁comm": 3186,
      "ortal": 3187,
      "2017": 3188,
      "ப்பி": 3189,
      "](https://ta.wikipedia.org/wiki/இந்தியா#cite_ref-": 3190,
      "indust": 3191,
      "-317": 3192,
      "ompany": 3193,
      "ujar": 3194,
      "lobal": 3195,
      "துகாப்பு": 3196,
      "BC": 3197,
      "ks": 3198,
      "y-": 3199,
      "iation": 3200,
      "onwealth": 3201,
      "eration": 3202,
      "ar,": 3203,
      "1970": 3204,
      "▁Census": 3205,
      "MetcalfMetcalf2006),": 3206,
      "&s": 3207,
      "-le": 3208,
      "64": 3209,
      "7/": 3210,
      "Dikshit": 3211,
      "fric": 3212,
      "तेल": 3213,
      "ीस": 3214,
      "००": 3215,
      "வல்": 3216,
      "ஸ்த": 3217,
      "జన": 3218,
      "టు": 3219,
      "టె": 3220,
      "▁नाम": 3221,
      "tel": 3222,
      "1947": 3223,
      "▁पूर्व": 3224,
      "](https://hi.wikipedia.org/wiki/भारत#cite_ref-": 3225,
      "ில்லி": 3226,
      "▁most": 3227,
      "▁अप": 3228,
      "नाग": 3229,
      "▁2004": 3230,
      "▁विक": 3231,
      "depend": 3232,
      "▁చె": 3233,
      "నాయ": 3234,
      "▁[↑](https://hi.wikipedia.org/wiki/भारत#cite_ref-FOOTNOTE": 3235,
      "▁रूप": 3236,
      "–సా.శ.పూ.": 3237,
      "▁ఆర్": 3238,
      "▁देशों": 3239,
      "పాలిత": 3240,
      "கிறது.": 3241,
      "స్త్రం:": 3242,
      "▁ప్రాంత": 3243,
      "ளாதார": 3244,
      "ేంద్రపాలిత": 3245,
      "embly": 3246,
      "](https://te.wikipedia.org/wiki/దస్త్రం:": 3247,
      "Schwartzberg2023": 3248,
      "DikshitSchwartzberg2023": 3249,
      "country": 3250,
      "arb": 3251,
      "alley": 3252,
      "ident": 3253,
      "▁bec": 3254,
      "▁BCE": 3255,
      "ird": 3256,
      "owland": 3257,
      "6–": 3258,
      "CO": 3259,
      "cord": 3260,
      "ket": 3261,
      "minis": 3262,
      "press": 3263,
      "ze": 3264,
      "](https://www.": 3265,
      "▁\"I": 3266,
      "▁India\"),": 3267,
      "▁state": 3268,
      "▁தலை": 3269,
      "ument": 3270,
      "▁after": 3271,
      "istan": 3272,
      "\"](https://books.google.com/books?id=": 3273,
      "▁இந்தியாவில்": 3274,
      ".gov.in/": 3275,
      "ourt": 3276,
      "ohn": 3277,
      "▁[Archived](https://web.archive.org/web/20": 3278,
      "▁2021.\n": 3279,
      "censusindia.gov.in/2011": 3280,
      "89": 3281,
      "_V": 3282,
      "lam": 3283,
      "ned": 3284,
      "ok": 3285,
      "y,": 3286,
      "▁ed.": 3287,
      "kim": 3288,
      "▁[Indian": 3289,
      "ering": 3290,
      "al_P": 3291,
      "andard": 3292,
      "▁co": 3293,
      "1996": 3294,
      "emple": 3295,
      "▁East": 3296,
      "71": 3297,
      "hol": 3298,
      "ru": 3299,
      "ंक": 3300,
      "टे": 3301,
      "धी": 3302,
      "ोन": 3303,
      "கர்": 3304,
      "மன்ற": 3305,
      "ఖ్య": 3306,
      "గో": 3307,
      "తో": 3308,
      "బి": 3309,
      "హి": 3310,
      "ones": 3311,
      "ार्": 3312,
      "▁कि": 3313,
      "▁(eds.": 3314,
      "▁2015": 3315,
      "ும்.[[": 3316,
      "_of_the": 3317,
      "▁wh": 3318,
      "ப்புரு": 3319,
      "ையின்": 3320,
      "▁*The": 3321,
      "ंगाल": 3322,
      "▁तट": 3323,
      "▁न्या": 3324,
      "கள்\")": 3325,
      "▁एवं": 3326,
      "ிருந்த": 3327,
      "▁கொண்ட": 3328,
      "ovement": 3329,
      "/article": 3330,
      "▁./பகுப்பு:Pages\\_": 3331,
      "%E0%A4%": 3332,
      "श्मीर": 3333,
      "స్కృ": 3334,
      "्यवस्था": 3335,
      "-of": 3336,
      "8-0)": 3337,
      "_O": 3338,
      "a.": 3339,
      "c=": 3340,
      "countries": 3341,
      "mu": 3342,
      "▁per": 3343,
      "▁[[": 3344,
      "than": 3345,
      "▁Congress": 3346,
      "▁1,": 3347,
      "life": 3348,
      "▁Pe": 3349,
      "olper": 3350,
      "emoc": 3351,
      ".png": 3352,
      "auth": 3353,
      "▁century": 3354,
      "olpert": 3355,
      "5–": 3356,
      "ீவு": 3357,
      "ins": 3358,
      "arh": 3359,
      "esearch": 3360,
      "▁sta": 3361,
      "▁இய": 3362,
      "ங்கி": 3363,
      "ross": 3364,
      "த்துறை": 3365,
      "▁Islands": 3366,
      "▁பகுதி": 3367,
      "வார்ப்புரு": 3368,
      "91": 3369,
      "93": 3370,
      "co": 3371,
      "lor": 3372,
      "oon": 3373,
      "▁pri": 3374,
      "come": 3375,
      "umbai": 3376,
      "55": 3377,
      "84": 3378,
      "Template:": 3379,
      "_ప": 3380,
      "gions": 3381,
      "lang": 3382,
      "lations": 3383,
      "ल\")": 3384,
      "सद": 3385,
      "ஐக்கிய": 3386,
      "நா": 3387,
      "மீ": 3388,
      "ழி": 3389,
      "హా": 3390,
      "ి.\n": 3391,
      "▁ஏ": 3392,
      "▁ను": 3393,
      "▁జాతీయ": 3394,
      "](https://doi.org/": 3395,
      "▁[न": 3396,
      "▁\"द": 3397,
      "▁\"இ": 3398,
      "ann": 3399,
      "ars": 3400,
      "▁केंद्र": 3401,
      "्तर": 3402,
      "chool": 3403,
      "▁உற்ப": 3404,
      "▁English": 3405,
      "भाग": 3406,
      "மைப்பு": 3407,
      "▁2011\n": 3408,
      "संख्या": 3409,
      "%20%20": 3410,
      "ேர்த": 3411,
      "▁अनुसार": 3412,
      "▁प्रदेश\")": 3413,
      "ஞ்ச": 3414,
      "▁स्थ": 3415,
      "్యవస్థ": 3416,
      "Qu": 3417,
      "pa": 3418,
      "▁states": 3419,
      "ulti": 3420,
      "▁music": 3421,
      "▁number": 3422,
      "dustry": 3423,
      "-78": 3424,
      "/s": 3425,
      "UN": 3426,
      "_உ": 3427,
      "▁1998": 3428,
      "\");": 3429,
      "▁Constitution": 3430,
      "த்தை": 3431,
      "▁கட": 3432,
      "anglad": 3433,
      "▁வர": 3434,
      "▁It": 3435,
      "▁குறி": 3436,
      "▁போது": 3437,
      "rganisation": 3438,
      "angladesh": 3439,
      "_2": 3440,
      "ehr": 3441,
      "ges": 3442,
      "if": 3443,
      "ph": 3444,
      "y\")": 3445,
      "orthern": 3446,
      "ttar": 3447,
      "ustral": 3448,
      "▁14": 3449,
      "ilg": 3450,
      "▁1947": 3451,
      "▁national": 3452,
      "▁tradition": 3453,
      "nown": 3454,
      "300": 3455,
      "hp": 3456,
      "एँ": 3457,
      "एस": 3458,
      "खा": 3459,
      "गो": 3460,
      "चे": 3461,
      "लि": 3462,
      "सी": 3463,
      "ैक": 3464,
      "ोड़": 3465,
      "ணிய": 3466,
      "தல்": 3467,
      "வும்": 3468,
      "డా": 3469,
      "దా": 3470,
      "బడ": 3471,
      "మే": 3472,
      "రణ": 3473,
      "▁లో": 3474,
      "▁[हिन्द": 3475,
      "ार्ट": 3476,
      "ict": 3477,
      "-14": 3478,
      "▁मूल": 3479,
      "▁dance": 3480,
      "▁நூ": 3481,
      "विधान": 3482,
      "▁जो": 3483,
      "contain": 3484,
      "sian": 3485,
      "▁बहु": 3486,
      "▁सेना": 3487,
      "▁కూ": 3488,
      "ాలు,": 3489,
      "ose": 3490,
      "ड़ी": 3491,
      "detail": 3492,
      "म्बर": 3493,
      ".jpg)](https://hi.wikipedia.org/wiki/चित्र:": 3494,
      "▁குடிய": 3495,
      "▁రాష్ట్ర": 3496,
      "▁भू": 3497,
      "కిస్తాన్": 3498,
      "धिकार": 3499,
      "▁చరిత్ర\")": 3500,
      "्यटन": 3501,
      ".n": 3502,
      "bank": 3503,
      "ita": 3504,
      "iter": 3505,
      "oth": 3506,
      "tre": 3507,
      "▁we": 3508,
      "▁Con": 3509,
      "chin": 3510,
      "identifiers": 3511,
      "cond": 3512,
      "-88": 3513,
      "ingham": 3514,
      "▁Development": 3515,
      "parame": 3516,
      "120px-": 3517,
      "_இ": 3518,
      "bn": 3519,
      "vol": 3520,
      "நாட்டு": 3521,
      "ia\")": 3522,
      "](https://web.archive.org/web/201": 3523,
      "ம்ஸ்": 3524,
      "▁India*](https://books.google.com/books?id=": 3525,
      "▁Sanskrit": 3526,
      "urton": 3527,
      "▁12": 3528,
      "▁2013": 3529,
      "▁அல்ல": 3530,
      "ode": 3531,
      "▁...": 3532,
      "box": 3533,
      "under": 3534,
      "▁2011.\n": 3535,
      "▁two": 3536,
      "inister": 3537,
      "timesofindia": 3538,
      "olitics": 3539,
      "ources": 3540,
      "ளையாட்டு": 3541,
      "▁அல்லது": 3542,
      "timesofindia.indiatimes.com/": 3543,
      "En": 3544,
      "▁<": 3545,
      "▁[O": 3546,
      "ised": 3547,
      "▁Pakistan": 3548,
      "▁Publishing": 3549,
      "▁ab": 3550,
      "▁Hindi": 3551,
      "able": 3552,
      "▁Press.": 3553,
      "ummits": 3554,
      ".htm": 3555,
      "7,": 3556,
      "75": 3557,
      "IA": 3558,
      "Nav": 3559,
      "तिक": 3560,
      "दू": 3561,
      "भू": 3562,
      "श्री": 3563,
      "ीत": 3564,
      "ील": 3565,
      "டன்": 3566,
      "▁j": 3567,
      "▁ఈ": 3568,
      "▁భారత": 3569,
      "▁up": 3570,
      "▁29": 3571,
      "](https://en.wikipedia.org/wiki/W": 3572,
      "▁பிற": 3573,
      "▁மலை": 3574,
      "atar": 3575,
      "ங்கை": 3576,
      "नाथ": 3577,
      "_क्षेत्र": 3578,
      "త్రి": 3579,
      "ాలు](https://te.wikipedia.org/wiki/": 3580,
      "▁had": 3581,
      "▁[Asher": 3582,
      "doc": 3583,
      "▁एशिया": 3584,
      "ndaman": 3585,
      "▁अन्य": 3586,
      "▁\"Doi": 3587,
      "oi_(identifier)": 3588,
      "गुजरात": 3589,
      "ligious": 3590,
      "containing\\_": 3591,
      "1-0": 3592,
      "Rep": 3593,
      "UCN": 3594,
      "▁$": 3595,
      "▁ref": 3596,
      "cis": 3597,
      "ased": 3598,
      "118": 3599,
      "▁one": 3600,
      "tud": 3601,
      "arket": 3602,
      "ector": 3603,
      "124": 3604,
      "3),": 3605,
      "i,": 3606,
      "டப்பட்ட": 3607,
      "பி": 3608,
      "ரச": 3609,
      "வ்": 3610,
      "▁[s": 3611,
      "arliament": 3612,
      "்கள": 3613,
      "1950": 3614,
      "▁பட்டியல்": 3615,
      "ர்ந்த": 3616,
      "▁மக்கள்": 3617,
      "▁later": 3618,
      "ண்டா": 3619,
      "abad": 3620,
      "▁ஒன்ற": 3621,
      "டைம்ஸ்": 3622,
      "ப்படும்": 3623,
      "athak": 3624,
      "▁நிறு": 3625,
      "▁Environment": 3626,
      "ிரைப்பட": 3627,
      "டிப்படையில்": 3628,
      ".aspx": 3629,
      ",[[": 3630,
      "3_": 3631,
      "4/": 3632,
      "Hindi": 3633,
      "Ludden": 3634,
      "gra": 3635,
      "tition": 3636,
      "arn": 3637,
      "read": 3638,
      "tionary": 3639,
      "▁India\")\n": 3640,
      "using\\_": 3641,
      "▁R.": 3642,
      "▁Times": 3643,
      "230": 3644,
      "▁Budd": 3645,
      "▁election": 3646,
      "▁than": 3647,
      "harat": 3648,
      "_New": 3649,
      "IM": 3650,
      "Vi": 3651,
      "_క": 3652,
      "_to": 3653,
      "has": 3654,
      "zation": 3655,
      "अन": 3656,
      "जय": 3657,
      "टक": 3658,
      "पी": 3659,
      "पति": 3660,
      "मह": 3661,
      "रो": 3662,
      "ेस": 3663,
      "తు": 3664,
      "పతి": 3665,
      "▁ड": 3666,
      "▁फ": 3667,
      "▁ని": 3668,
      "▁స్థ": 3669,
      "▁[t": 3670,
      "▁[द": 3671,
      "▁[ந": 3672,
      "▁[అ": 3673,
      "▁[ప": 3674,
      "▁\"భారతదేశం": 3675,
      "city": 3676,
      "்க்க": 3677,
      "inguis": 3678,
      "▁spe": 3679,
      "ama": 3680,
      "ami": 3681,
      "్రి": 3682,
      "▁இல": 3683,
      "riod": 3684,
      "▁British": 3685,
      "ర్వ": 3686,
      "న్ని": 3687,
      "▁2003": 3688,
      "िया\")": 3689,
      "▁ஆறு": 3690,
      "▁गण": 3691,
      "म्म": 3692,
      "ी_भाषा": 3693,
      "CS1": 3694,
      "rown": 3695,
      "meric": 3696,
      "वंश": 3697,
      "మిళ": 3698,
      "▁जाता": 3699,
      "▁वर्ष": 3700,
      "ैदान": 3701,
      "వంశ": 3702,
      "तंत्रता": 3703,
      "rishn": 3704,
      "वेब": 3705,
      "▁साम्राज्य": 3706,
      "द्योगिक": 3707,
      "ehru": 3708,
      "ner": 3709,
      "ald": 3710,
      "theast": 3711,
      "itz": 3712,
      "▁includ": 3713,
      "loy": 3714,
      "formatics": 3715,
      "▁[\"C": 3716,
      "epart": 3717,
      "▁[2](https://en.wikipedia.org/wiki/India#cite_ref-FOOTNOTE": 3718,
      "▁[1](https://en.wikipedia.org/wiki/India#cite_ref-FOOTNOTE": 3719,
      "rovision": 3720,
      "Wikipedia": 3721,
      "otals": 3722,
      "JPG": 3723,
      "▁became": 3724,
      "545": 3725,
      "தா": 3726,
      "ேற்கு": 3727,
      "▁\"ந": 3728,
      "aran": 3729,
      "▁India.": 3730,
      "▁C.": 3731,
      "\\_identifiers": 3732,
      "change": 3733,
      "_of_C": 3734,
      "▁Modern": 3735,
      "▁அரசு": 3736,
      "ையானது": 3737,
      "archived": 3738,
      "களை": 3739,
      "ங்களில்": 3740,
      "▁பொ.": 3741,
      "worldbank": 3742,
      "▁பிரதேச": 3743,
      "▁பொருளாதார": 3744,
      "▁ஊ.": 3745,
      "▁official": 3746,
      "langoff": 3747,
      ";\n": 3748,
      "_-": 3749,
      "▁hi": 3750,
      "▁[e": 3751,
      "tes": 3752,
      "omin": 3753,
      "▁(2018": 3754,
      "▁Per": 3755,
      "union": 3756,
      "▁northern": 3757,
      "rade": 3758,
      "▁territories": 3759,
      "epartment": 3760,
      "2,": 3761,
      "54": 3762,
      "6_": 3763,
      "LA": 3764,
      "NGDP": 3765,
      "_J": 3766,
      "_మ": 3767,
      "_భాష": 3768,
      "di": 3769,
      "min": 3770,
      "ves": 3771,
      "wal": 3772,
      "पे": 3773,
      "मंत्र": 3774,
      "रवरी": 3775,
      "िज़": 3776,
      "ेट": 3777,
      "கர": 3778,
      "ఫ్": 3779,
      "▁స్": 3780,
      "▁Union": 3781,
      "▁[इ": 3782,
      "▁[బ": 3783,
      "▁[స": 3784,
      "▁[पु": 3785,
      "▁[South": 3786,
      "▁\"इ": 3787,
      "▁\"అ": 3788,
      "▁\"हिन्द": 3789,
      "ests": 3790,
      "2015": 3791,
      "196": 3792,
      "இந்தியா)": 3793,
      "▁मु": 3794,
      "विज्ञान": 3795,
      "ाला": 3796,
      "న్నాయ": 3797,
      "▁కాల": 3798,
      "ాలు\")": 3799,
      "]](https://hi.wikipedia.org/wiki/भारत#cite_note-1": 3800,
      "ड़े": 3801,
      "சிறப்பு:BookSources/978-81": 3802,
      "▁उत्तर": 3803,
      ".jpg)](https://te.wikipedia.org/wiki/దస్త్రం:": 3804,
      "▁[↑](https://hi.wikipedia.org/wiki/भारत#cite_ref-1": 3805,
      "ులు](https://te.wikipedia.org/wiki/": 3806,
      "▁రై": 3807,
      "द्यान": 3808,
      "र्थिक": 3809,
      "▁समय": 3810,
      "▁2006](https://en.wikipedia.org/wiki/India#CITEREF": 3811,
      "హిందూ": 3812,
      "यालय": 3813,
      "/India": 3814,
      "2).": 3815,
      "2),": 3816,
      "EO": 3817,
      "ed/": 3818,
      "▁Ac": 3819,
      "\\_parame": 3820,
      "ussia": 3821,
      "▁caste": 3822,
      "onsoon": 3823,
      "resident": 3824,
      "ricket": 3825,
      "ujarat": 3826,
      "-50": 3827,
      "Robb": 3828,
      "a-": 3829,
      "ail": 3830,
      "can": 3831,
      "d/": 3832,
      "ee": 3833,
      "ணா": 3834,
      "▁ர": 3835,
      "▁[v": 3836,
      "omas": 3837,
      "ould": 3838,
      "▁படி": 3839,
      "▁தா": 3840,
      "▁mil": 3841,
      "▁இத": 3842,
      "road": 3843,
      "upta": 3844,
      "▁J.": 3845,
      "-90": 3846,
      "ake": 3847,
      "_பட்டியல்": 3848,
      "uction": 3849,
      "llchin": 3850,
      "ிறி": 3851,
      "▁இந்தியப்": 3852,
      "மிழ்": 3853,
      "னர்.": 3854,
      "ographic": 3855,
      "Re": 3856,
      "WEO": 3857,
      "_for": 3858,
      "gan": 3859,
      "ymb": 3860,
      "▁under": 3861,
      "tig": 3862,
      "▁(*": 3863,
      "▁sup": 3864,
      "map": 3865,
      ".jpg/120px-": 3866,
      "ivil": 3867,
      "▁[2](https://en.wikipedia.org/wiki/India#cite_ref-": 3868,
      "▁[1](https://en.wikipedia.org/wiki/India#cite_ref-": 3869,
      "▁2010](https://en.wikipedia.org/wiki/India#CITEREF": 3870,
      "ters#": 3871,
      "▁Plate": 3872,
      "tecture": 3873,
      "▁Commissioner": 3874,
      "\\_parameters#": 3875,
      "-B": 3876,
      "Pe": 3877,
      "Uttar": 3878,
      "ua": 3879,
      "डी": 3880,
      "डु": 3881,
      "णि": 3882,
      "त्य": 3883,
      "धु": 3884,
      "लोक": 3885,
      "ென்ன": 3886,
      "ఆసియా": 3887,
      "ద్ర": 3888,
      "భూ": 3889,
      "మె": 3890,
      "య్య": 3891,
      "ర్య": 3892,
      "▁छ": 3893,
      "▁ల": 3894,
      "▁am": 3895,
      "teen": 3896,
      "▁\"न": 3897,
      "▁\"ప": 3898,
      "▁\"బ": 3899,
      "▁\"స": 3900,
      "▁\"सं": 3901,
      "2022": 3902,
      "▁பேரரசு": 3903,
      "▁मा": 3904,
      "\\_template": 3905,
      "▁இரா": 3906,
      "ப்புற": 3907,
      "ments": 3908,
      "▁நாட": 3909,
      "नाव": 3910,
      "▁சே": 3911,
      "▁द्वार": 3912,
      "▁there": 3913,
      "160": 3914,
      "माज": 3915,
      "ी](https://hi.wikipedia.org/wiki/अ": 3916,
      "ligence": 3917,
      "త్త": 3918,
      "▁అధిక": 3919,
      "ம்பரிய": 3920,
      "▁ప్రదేశ్": 3921,
      "▁[2](https://ta.wikipedia.org/wiki/இந்தியா#cite_ref-FOOTNOTE": 3922,
      "▁உள்ளது.": 3923,
      "▁[1](https://ta.wikipedia.org/wiki/இந்தியா#cite_ref-FOOTNOTE": 3924,
      "ప్రదేశ్": 3925,
      "सेना": 3926,
      "▁people": 3927,
      "_நாடு": 3928,
      "▁चु": 3929,
      "▁हुई": 3930,
      "ughal": 3931,
      "शासित": 3932,
      "त्पाद": 3933,
      "telligence": 3934,
      "▁నుండి": 3935,
      "/auth": 3936,
      "01": 3937,
      "3/": 3938,
      "_n": 3939,
      "ced": 3940,
      "ealth": 3941,
      "ual": 3942,
      "▁time": 3943,
      "cite": 3944,
      "▁2019.": 3945,
      "▁million": 3946,
      "▁period": 3947,
      "rowth": 3948,
      "inistry_of_": 3949,
      "pics": 3950,
      "Articles\\_with\\_": 3951,
      "ociet": 3952,
      "ahar": 3953,
      "jan": 3954,
      "kar": 3955,
      "▁[India": 3956,
      "▁\"சிறப்பு:BookSources/978-1": 3957,
      "\"):": 3958,
      "reat": 3959,
      "ந்தை": 3960,
      "](https://ta.wikipedia.org/wiki/சிறப்பு:BookSources/978-1": 3961,
      "▁many": 3962,
      "agar": 3963,
      "logo": 3964,
      ".php": 3965,
      "-108": 3966,
      "-107-1": 3967,
      "▁[978-0-521": 3968,
      "_summit": 3969,
      "▁இருந்து": 3970,
      "▁மாநில": 3971,
      "▁அரசிய": 3972,
      "inguistic": 3973,
      "Bl": 3974,
      "yle": 3975,
      "▁incre": 3976,
      "adi": 3977,
      "▁modern": 3978,
      "▁2001": 3979,
      "▁Economic": 3980,
      "▁November": 3981,
      "▁new": 3982,
      "▁\"Economy": 3983,
      "_For": 3984,
      ".svg/": 3985,
      "posed": 3986,
      ".svg.png": 3987,
      "ritsch": 3988,
      "-29": 3989,
      "3TR": 3990,
      "RL": 3991,
      "_ब": 3992,
      "_வ": 3993,
      "bc": 3994,
      "ving": 3995,
      "way": 3996,
      "ईसा": 3997,
      "कल": 3998,
      "खाना": 3999,
      "तु": 4000,
      "नगर": 4001,
      "ल्": 4002,
      "ोम": 4003,
      "।\n": 4004,
      "ணக்க": 4005,
      "ளவு": 4006,
      "ణి": 4007,
      "తమిళ": 4008,
      "మైన": 4009,
      "హార": 4010,
      "ోర్": 4011,
      "▁ऊ": 4012,
      "▁ட": 4013,
      "encies": 4014,
      "▁\"ఇ": 4015,
      "▁\"భారత": 4016,
      "arge": 4017,
      "es,": 4018,
      "](https://hi.wikipedia.org/wiki/इ": 4019,
      "▁they": 4020,
      "▁सु": 4021,
      "inger": 4022,
      "▁Al": 4023,
      "](https://te.wikipedia.org/wiki/బ": 4024,
      "\\_im": 4025,
      "uslim": 4026,
      "ள்நாட்டு": 4027,
      "र्दू": 4028,
      "ங்கா": 4029,
      "▁dec": 4030,
      "▁अग": 4031,
      "▁दिया": 4032,
      "▁बढ़": 4033,
      "imalay": 4034,
      "▁మొ": 4035,
      "▁*[The": 4036,
      "నాగ": 4037,
      "త్తర": 4038,
      "ులు\")": 4039,
      "राष्ट्रपति": 4040,
      "ாளு": 4041,
      "हिन्दी": 4042,
      "्रां": 4043,
      "▁produc": 4044,
      "▁அமைப்பு": 4045,
      "▁हुआ": 4046,
      "हासागर": 4047,
      "फ़रवरी": 4048,
      "மையான": 4049,
      "▁இந்து": 4050,
      "ष्ण": 4051,
      "ंबई": 4052,
      "▁लिए": 4053,
      "శ్మీ": 4054,
      "మూస:": 4055,
      "▁विकास": 4056,
      "IMF": 4057,
      "3TRt": 4058,
      "72": 4059,
      "S.": 4060,
      "ece": 4061,
      "economic": 4062,
      "mp": 4063,
      "▁[19": 4064,
      "](https://en.wikipedia.org/wiki/The": 4065,
      "astern": 4066,
      "trar": 4067,
      "▁summit\")": 4068,
      "▁S.": 4069,
      "▁who": 4070,
      "▁2025": 4071,
      "▁[978-81": 4072,
      "▁general": 4073,
      "avi": 4074,
      "2006),": 4075,
      "904-7": 4076,
      "](https://en.wikipedia.org/wiki/Economy": 4077,
      "](Special:BookSources/978-0-19": 4078,
      "▁\"Special:BookSources/978-0-19": 4079,
      "-80904-7": 4080,
      "gistrar": 4081,
      "ainting": 4082,
      "-India": 4083,
      "119": 4084,
      "C).": 4085,
      "IUCN": 4086,
      "hindu": 4087,
      "men": 4088,
      "tb": 4089,
      "tus": 4090,
      "ிட்ட": 4091,
      "ுக": 4092,
      "ேம்ப": 4093,
      "▁2.": 4094,
      "ந்திய": 4095,
      "ooperation": 4096,
      "▁str": 4097,
      "▁such": 4098,
      "ched": 4099,
      "▁வட": 4100,
      "▁வரு": 4101,
      "olk": 4102,
      "ையும்": 4103,
      "▁Bi": 4104,
      "aylor": 4105,
      "▁ஆற்ற": 4106,
      "ண்ண": 4107,
      "ண்ப": 4108,
      "imf": 4109,
      "▁என்று": 4110,
      "▁Language": 4111,
      "articles": 4112,
      "▁term": 4113,
      "▁2021.": 4114,
      "do-A": 4115,
      "Sharma2007": 4116,
      "censusindia.gov.in/2011census": 4117,
      "7-0": 4118,
      "94": 4119,
      "a)": 4120,
      "cent": 4121,
      "ix": 4122,
      "site": 4123,
      "pec": 4124,
      "enn": 4125,
      "rec": 4126,
      "-06": 4127,
      "▁2005": 4128,
      "1162": 4129,
      "akh": 4130,
      "induism": 4131,
      "▁3,": 4132,
      "limate": 4133,
      "%7c": 4134,
      "-24": 4135,
      ".fr": 4136,
      "1]](https://en.wikipedia.org/wiki/India#cite_note-FOOTNOTE": 4137,
      "DD": 4138,
      "EX": 4139,
      "European": 4140,
      "Provision": 4141,
      "Rowland": 4142,
      "_with": 4143,
      "iri": 4144,
      "क्स": 4145,
      "न](https://hi.wikipedia.org/wiki/": 4146,
      "योग": 4147,
      "वै": 4148,
      "स्ट": 4149,
      "ूर्": 4150,
      "ृति": 4151,
      "மய": 4152,
      "శా": 4153,
      "ైనా": 4154,
      "▁he": 4155,
      "▁[आ": 4156,
      "▁[ज": 4157,
      "▁[ఇ": 4158,
      "tex": 4159,
      "▁\"आ": 4160,
      "▁\"జ": 4161,
      "arly": 4162,
      "](https://en.wikipedia.org/wiki/O": 4163,
      "religion": 4164,
      "ारी": 4165,
      "ार्च": 4166,
      "](https://ta.wikipedia.org/wiki/இ": 4167,
      "isions": 4168,
      "tions": 4169,
      "](https://te.wikipedia.org/wiki/ఇ": 4170,
      "](https://te.wikipedia.org/wiki/స": 4171,
      "▁P.": 4172,
      "▁[↑](https://te.wikipedia.org/wiki/భారతదేశం#cite_ref-": 4173,
      "ும்ப": 4174,
      "▁வீ": 4175,
      "▁இவை": 4176,
      "िक्": 4177,
      "భారత_": 4178,
      "க்_க": 4179,
      "▁BRICS": 4180,
      "▁D.": 4181,
      "▁जून": 4182,
      "_(India)": 4183,
      "▁दे": 4184,
      "▁दिस": 4185,
      "राजस्थान": 4186,
      "▁Nations": 4187,
      "రాజ": 4188,
      "లో](https://te.wikipedia.org/wiki/": 4189,
      "▁group": 4190,
      "రిజ": 4191,
      "క్కు": 4192,
      "ிலிருந்து": 4193,
      "_பல்கலைக்கழ": 4194,
      "ండ్": 4195,
      "▁முறை": 4196,
      "_Delhi": 4197,
      "नेपाल": 4198,
      "त्तरा": 4199,
      "ives": 4200,
      "जाति": 4201,
      "▁क्षेत्र\")": 4202,
      "धानमंत्र": 4203,
      "](https://en.wikipedia.org/wiki/Doi_(identifier)": 4204,
      "्रीका": 4205,
      "गणना": 4206,
      "வெளி": 4207,
      "▁खाना\")": 4208,
      "▁निर्": 4209,
      "▁கொண்டுள்ளது.": 4210,
      "▁அதிகரி": 4211,
      "माणु": 4212,
      "▁[doi](https://en.wikipedia.org/wiki/Doi_(identifier)": 4213,
      "స్కృతి": 4214,
      "म्मू": 4215,
      "ymbol": 4216,
      "ணக்கெடு": 4217,
      "Rowland1970": 4218,
      "▁दिसम्बर": 4219,
      "-C": 4220,
      "127": 4221,
      "313": 4222,
      "_2011": 4223,
      "owe": 4224,
      "slam": 4225,
      "ini": 4226,
      "icha": 4227,
      "▁some": 4228,
      "▁States": 4229,
      "ild": 4230,
      "hell": 4231,
      "cean": 4232,
      "▁Raj": 4233,
      "1990": 4234,
      "▁Data": 4235,
      "28)": 4236,
      "-30": 4237,
      "article": 4238,
      "hina": 4239,
      "riculture": 4240,
      "ultan": 4241,
      "ichael": 4242,
      "110": 4243,
      "1-4": 4244,
      "back": 4245,
      "hang": 4246,
      "most": 4247,
      "m.nic.in/": 4248,
      "ncl": 4249,
      "ria": 4250,
      "str": 4251,
      "tandard": 4252,
      "கப்_ப": 4253,
      "லு": 4254,
      "ாண்ட": 4255,
      "▁history": 4256,
      "ess/": 4257,
      "இந்து": 4258,
      "amb": 4259,
      "▁11": 4260,
      "▁Min": 4261,
      "ticle": 4262,
      "emale": 4263,
      "content": 4264,
      "▁long": 4265,
      "▁large": 4266,
      "AAJ": 4267,
      "asting": 4268,
      "▁War": 4269,
      "▁பெரிய": 4270,
      "anipur": 4271,
      "லாய": 4272,
      "ikh": 4273,
      "](https://ta.wikipedia.org/wiki/இந்திய_": 4274,
      "ryan": 4275,
      "▁tex": 4276,
      "usiness/": 4277,
      "ervation": 4278,
      "▁பகுதிய": 4279,
      "▁மிகப்": 4280,
      "பாய்": 4281,
      "ளர்ச்சி": 4282,
      "▁classical": 4283,
      "arnata": 4284,
      "nclm.nic.in/": 4285,
      "6/": 4286,
      "_g": 4287,
      "hindi": 4288,
      "olog": 4289,
      "ris": 4290,
      "tl": 4291,
      "ui": 4292,
      "yayan": 4293,
      "▁[United": 4294,
      "alore": 4295,
      "as,": 4296,
      "trol": 4297,
      "▁cap": 4298,
      "angalore": 4299,
      "▁war": 4300,
      "resent": 4301,
      "_Centre": 4302,
      "_Temple": 4303,
      "▁Press](https://en.wikipedia.org/wiki/": 4304,
      "ankar": 4305,
      "ommonwealth": 4306,
      "rdu": 4307,
      "atsyayan": 4308,
      "countries_by": 4309,
      "ociety": 4310,
      "52": 4311,
      "C),": 4312,
      "_प": 4313,
      "gl": 4314,
      "go": 4315,
      "jec": 4316,
      "west": 4317,
      "टी": 4318,
      "द्वीप": 4319,
      "वी": 4320,
      "हीं": 4321,
      "िज": 4322,
      "िन्": 4323,
      "ैल": 4324,
      "ैंड": 4325,
      "வற்ற": 4326,
      "ோர்": 4327,
      "ం?action=edit&redlink=1": 4328,
      "చే": 4329,
      "బా": 4330,
      "▁50": 4331,
      "▁end": 4332,
      "▁फ़रवरी": 4333,
      "▁[జ": 4334,
      "](https://hi.wikipedia.org/wiki/सं": 4335,
      "](https://ta.wikipedia.org/wiki/ந": 4336,
      "▁பே": 4337,
      "▁பிரி": 4338,
      "▁मार्च": 4339,
      "्यता": 4340,
      "ammu": 4341,
      "▁पह": 4342,
      "▁पार्ट": 4343,
      "▁கார": 4344,
      "urve": 4345,
      "▁Public": 4346,
      "▁தொழ": 4347,
      "र्स": 4348,
      "र्जा": 4349,
      "](https://hi.wikipedia.org/wiki/भारतीय": 4350,
      "etary": 4351,
      "▁M.": 4352,
      "rain": 4353,
      "1999": 4354,
      "26)": 4355,
      "▁పా": 4356,
      "त्रि": 4357,
      "▁बना": 4358,
      "▁वा": 4359,
      "குடிய": 4360,
      "▁వా": 4361,
      "ండు": 4362,
      "▁संविधान": 4363,
      "▁చూ": 4364,
      "త్వ": 4365,
      "र्वत": 4366,
      "ंडिया": 4367,
      "पात": 4368,
      "ंग्रेस": 4369,
      "ప్రధాన": 4370,
      "onstituent": 4371,
      "▁பாதுகாப்பு": 4372,
      "▁తే": 4373,
      "स्कृति": 4374,
      "data.": 4375,
      "▁மிக": 4376,
      "▁உருவா": 4377,
      "▁हिन्दी": 4378,
      "▁शासन": 4379,
      "▁थी": 4380,
      "_Development": 4381,
      "ேர்தல்": 4382,
      "▁நூற்ற": 4383,
      "ிரைப்படத்துறை": 4384,
      "वेबैक": 4385,
      "▁द्वारा": 4386,
      "3TRtDwAAQBAJ&pg=PA": 4387,
      "_பல்கலைக்கழகப்_ப": 4388,
      "_பல்கலைக்கழகப்_பதிப்பகம்": 4389,
      "-22": 4390,
      "K:": 4391,
      "_11": 4392,
      "stitu": 4393,
      "t-": 4394,
      "yan": 4395,
      "ors": 4396,
      "▁\"India": 4397,
      "arna": 4398,
      "ouse": 4399,
      "_of_2011": 4400,
      "right": 4401,
      "▁[\"The": 4402,
      "_Paper": 4403,
      "_Totals": 4404,
      "opulation_Totals": 4405,
      "_1_of_2011": 4406,
      "\"](https://web.archive.org/web/20160": 4407,
      "ministr": 4408,
      "al_Population_Totals": 4409,
      "details/": 4410,
      "Provisional_Population_Totals": 4411,
      "_Paper_1_of_2011": 4412,
      "Provisional_Population_Totals_Paper_1_of_2011": 4413,
      "Provisional_Population_Totals_Paper_1_of_2011_India": 4414,
      ".IN": 4415,
      "66": 4416,
      "87": 4417,
      "Empire": 4418,
      "Main": 4419,
      "britannica": 4420,
      "ities": 4421,
      "les/": 4422,
      "vatsyayan": 4423,
      "னம்": 4424,
      "ப்த": 4425,
      "வங்காள": 4426,
      "oral": 4427,
      "](Special:BookSources/978": 4428,
      ".org": 4429,
      "▁\"Special:BookSources/978": 4430,
      "ered": 4431,
      "](https://en.wikipedia.org/wiki/South_Asia": 4432,
      "ங்கில": 4433,
      "க்_": 4434,
      "▁Bank": 4435,
      "ிரசு": 4436,
      "டுத்த": 4437,
      "▁Kashmir": 4438,
      "apan": 4439,
      "ட்ஜ்": 4440,
      "ற்கா": 4441,
      "_BRICS": 4442,
      "_மொழி": 4443,
      "ultural": 4444,
      "தேசிய": 4445,
      "▁News": 4446,
      "-lord": 4447,
      "ropped": 4448,
      "▁பாரம்பரிய": 4449,
      "வார்ப்புரு:": 4450,
      "▁<https://": 4451,
      "ிறிட்ஜ்": 4452,
      "WEO.IN": 4453,
      "▁among": 4454,
      "IMFWEO.IN": 4455,
      "ேம்பிறிட்ஜ்": 4456,
      "britannica.com/": 4457,
      "vatsyayan-lord": 4458,
      "II": 4459,
      "_18": 4460,
      "bbc": 4461,
      "dr": 4462,
      "gr": 4463,
      "hal": 4464,
      "alli": 4465,
      "ictionary": 4466,
      "▁mathe": 4467,
      "▁land": 4468,
      "▁General": 4469,
      "▁art": 4470,
      "▁\"Re": 4471,
      "▁world's": 4472,
      "42": 4473,
      "6).": 4474,
      "9–": 4475,
      "Library": 4476,
      "Wolpert": 4477,
      "_न": 4478,
      "_on": 4479,
      "_సా": 4480,
      "_13": 4481,
      "ker": 4482,
      "ंट": 4483,
      "खंड": 4484,
      "खण्ड": 4485,
      "गोल": 4486,
      "धि": 4487,
      "रू": 4488,
      "रेल": 4489,
      "व्यवस्था": 4490,
      "शीन": 4491,
      "ुरु": 4492,
      "ुंबई": 4493,
      "ौर": 4494,
      "ौद्ध": 4495,
      "ौद्योगिक": 4496,
      "க்த": 4497,
      "ூபாய்": 4498,
      "ெரு": 4499,
      "ంప": 4500,
      "కో": 4501,
      "గణ": 4502,
      "దిన": 4503,
      "నై": 4504,
      "రీ": 4505,
      "▁या": 4506,
      "▁ro": 4507,
      "▁out": 4508,
      "dian": 4509,
      "▁\"చ": 4510,
      "inance": 4511,
      "्रम": 4512,
      "▁संग": 4513,
      "trag": 4514,
      "▁मैदान": 4515,
      "க்கோ": 4516,
      "](https://te.wikipedia.org/wiki/జ": 4517,
      "ారం": 4518,
      "](https://hi.wikipedia.org/wiki/भारत#cite_ref-FOOTNOTE": 4519,
      "olle": 4520,
      "▁अरब": 4521,
      "नाडु": 4522,
      "▁जल": 4523,
      "▁दर": 4524,
      "▁प्रति": 4525,
      "ताब्": 4526,
      "ச்சிய": 4527,
      "▁క్రీ": 4528,
      "स्त्र": 4529,
      "క్‌": 4530,
      "overty": 4531,
      "पुरी": 4532,
      "నికి": 4533,
      "ల్ల": 4534,
      "ంగీ": 4535,
      "▁సి": 4536,
      "ட்ப": 4537,
      "def": 4538,
      "నాభా": 4539,
      "▁इतिहास": 4540,
      "ங்களை": 4541,
      "▁हैं,": 4542,
      "జాబి": 4543,
      "▁[![](https://upload.wikimedia.org/wikipedia/commons/thumb/": 4544,
      "erala": 4545,
      "पर्यटन": 4546,
      "किम": 4547,
      "दीव": 4548,
      "▁इसके": 4549,
      "▁\"இந்தியாவின்": 4550,
      "rgani": 4551,
      "पालिका": 4552,
      "▁घाट": 4553,
      "▁பதிப்பகம்\"),": 4554,
      "▁శా": 4555,
      "▁భాష\")": 4556,
      "▁सिनेमा": 4557,
      "బెంగ": 4558,
      "esert": 4559,
      "िक्षा": 4560,
      "▁(eds.).": 4561,
      "िक्किम": 4562,
      "traglia": 4563,
      "జాబితా": 4564,
      "-n": 4565,
      "/P": 4566,
      "aus": 4567,
      "cul": 4568,
      "203": 4569,
      "](https://en.wikipedia.org/wiki/I": 4570,
      "▁since": 4571,
      "▁Arab": 4572,
      "▁Afric": 4573,
      "▁Cons": 4574,
      "▁both": 4575,
      "umar": 4576,
      "▁Mon": 4577,
      "▁Be": 4578,
      "Spear": 4579,
      "2905": 4580,
      "archive.org/details/": 4581,
      "▁Republic": 4582,
      "▁north": 4583,
      "▁Indus": 4584,
      "-53": 4585,
      "▁territory": 4586,
      "_the_": 4587,
      "ography": 4588,
      "rancis": 4589,
      "▁2018](https://en.wikipedia.org/wiki/India#CITEREF": 4590,
      "▁York": 4591,
      "▁Act,": 4592,
      "emocrac": 4593,
      "-882905": 4594,
      ".aspx?": 4595,
      "-107-11162": 4596,
      "](https://en.wikipedia.org/wiki/Economy_of_": 4597,
      "-882905-8": 4598,
      "-107-11162-2": 4599,
      ".uk": 4600,
      ":S": 4601,
      "Ag": 4602,
      "IJ": 4603,
      "ao": 4604,
      "operation": 4605,
      "ser": 4606,
      "மான்": 4607,
      "ர்த்த": 4608,
      "▁\"V": 4609,
      "hib": 4610,
      "itary": 4611,
      "-135": 4612,
      "ingdom": 4613,
      "ams": 4614,
      "](https://ta.wikipedia.org/wiki/இந்தியாவின்": 4615,
      "▁கட்ட": 4616,
      "23)": 4617,
      "25)": 4618,
      "▁economic": 4619,
      "▁Ge": 4620,
      "▁Government": 4621,
      "166": 4622,
      "ffice": 4623,
      "ராச": 4624,
      "▁முதல்": 4625,
      "▁rule": 4626,
      "▁விளையாட்டு": 4627,
      "Stein1998),": 4628,
      "▁செய": 4629,
      "▁பெரும்ப": 4630,
      "▁ஓர்": 4631,
      "▁Assembly": 4632,
      "industan": 4633,
      "teenth": 4634,
      "\\_templates": 4635,
      ".svg.png)": 4636,
      "ாளுமன்ற": 4637,
      "130": 4638,
      "74": 4639,
      "De": 4640,
      "QAAQBAJ&pg=PA": 4641,
      "casting": 4642,
      "itt": 4643,
      "oa": 4644,
      "oint": 4645,
      "▁oc": 4646,
      "2021": 4647,
      "trod": 4648,
      "▁found": 4649,
      "▁Research": 4650,
      "ubcontinent": 4651,
      "▁Press,": 4652,
      "677": 4653,
      "▁1994": 4654,
      "...": 4655,
      "avidson": 4656,
      "ront": 4657,
      "roadcasting": 4658,
      "▁occ": 4659,
      ",NGDP": 4660,
      "2]](https://en.wikipedia.org/wiki/India#cite_note-FOOTNOTE": 4661,
      "4-0": 4662,
      "AG": 4663,
      "Asia": 4664,
      "_en": 4665,
      "ave": 4666,
      "dones": 4667,
      "ele": 4668,
      "fgh": 4669,
      "s.[[": 4670,
      "work": 4671,
      "रण": 4672,
      "लिस": 4673,
      "वार": 4674,
      "वीं": 4675,
      "शक": 4676,
      "स](https://hi.wikipedia.org/wiki/": 4677,
      "सभा": 4678,
      "ां": 4679,
      "ाप": 4680,
      "ांध": 4681,
      "ोष": 4682,
      "०१": 4683,
      "ஃப்": 4684,
      "ணைய": 4685,
      "னா": 4686,
      "வான": 4687,
      "చల్": 4688,
      "యన్": 4689,
      "షు": 4690,
      "ూర్": 4691,
      "▁ध": 4692,
      "▁[చ": 4693,
      "▁[భారత": 4694,
      "▁[భారతీయ": 4695,
      "\")[[": 4696,
      "on,": 4697,
      "](https://en.wikipedia.org/wiki/V": 4698,
      "▁industry": 4699,
      "tric": 4700,
      "▁Affairs": 4701,
      "](https://te.wikipedia.org/wiki/ప": 4702,
      "](https://te.wikipedia.org/wiki/భారతీయ": 4703,
      "राठ": 4704,
      "▁மொத்த": 4705,
      "▁கட்டு": 4706,
      "urn": 4707,
      "ార్ట": 4708,
      "्ता:": 4709,
      "ాలయ": 4710,
      "▁दृ": 4711,
      "▁दो": 4712,
      "▁प्रमुख": 4713,
      "ள்ளது.[[": 4714,
      "క్క": 4715,
      "aksh": 4716,
      "udi": 4717,
      "▁వ్యవస్థ": 4718,
      "ast_Asia": 4719,
      "▁ము": 4720,
      ".gov/": 4721,
      "ட்ச": 4722,
      "ండో": 4723,
      "▁முன்ன": 4724,
      "ముంబ": 4725,
      "िये": 4726,
      "సిన": 4727,
      "▁रह": 4728,
      "▁குறை": 4729,
      "▁लग": 4730,
      "ినల్": 4731,
      "ద్ద": 4732,
      "▁ఉన్న": 4733,
      "▁ఉన్నాయ": 4734,
      "ृत्य": 4735,
      "ूनिव": 4736,
      "పాకిస్తాన్": 4737,
      "னைத்து": 4738,
      "ूरो": 4739,
      "▁2006](https://ta.wikipedia.org/wiki/இந்தியா#CITEREF": 4740,
      "ంధీ": 4741,
      "](https://hi.wikipedia.org/wiki/भारत_की_": 4742,
      "](https://hi.wikipedia.org/wiki/भारत_का_": 4743,
      "orities": 4744,
      "2001),": 4745,
      "_संघ": 4746,
      "▁ఒక": 4747,
      "▁ఒరిజ": 4748,
      "rahma": 4749,
      "▁युद्ध": 4750,
      "तेलु": 4751,
      "▁न्यायालय": 4752,
      "धिकारिक": 4753,
      "వంశం": 4754,
      "▁[पुरालेखित": 4755,
      "மிழ்ந": 4756,
      "▁अगस्त": 4757,
      "धानमंत्री": 4758,
      "urvey": 4759,
      "▁తేదీ": 4760,
      "fghan": 4761,
      "ార్టీ": 4762,
      "▁ఒరిజినల్": 4763,
      "-on-": 4764,
      "/g": 4765,
      "226": 4766,
      "2-4": 4767,
      "_l": 4768,
      "ae": 4769,
      "che": 4770,
      "▁/": 4771,
      "pee": 4772,
      "anc": 4773,
      "ancy": 4774,
      "tice": 4775,
      "arlo": 4776,
      "achin": 4777,
      "▁Science": 4778,
      "▁Ex": 4779,
      "▁largest": 4780,
      "ell": 4781,
      "verse": 4782,
      "▁From": 4783,
      "oreign": 4784,
      "▁trans": 4785,
      "2003),": 4786,
      "▁2,": 4787,
      "hrist": 4788,
      "▁union": 4789,
      "ynast": 4790,
      "iffer": 4791,
      "industry": 4792,
      "formation": 4793,
      "-of-": 4794,
      "rganization": 4795,
      "af": 4796,
      "lag": 4797,
      "lood": 4798,
      "rid": 4799,
      "றிய": 4800,
      "வையாக": 4801,
      "ேப": 4802,
      "ொரு": 4803,
      "▁ta": 4804,
      "▁her": 4805,
      "▁Qu": 4806,
      "▁[V": 4807,
      "▁\"[": 4808,
      "ந்திர": 4809,
      "▁பல": 4810,
      "இந்தியா\n": 4811,
      "▁Company": 4812,
      "▁மக்கள": 4813,
      "▁கூ": 4814,
      "ility": 4815,
      "▁maj": 4816,
      "▁வழ": 4817,
      "▁வணி": 4818,
      "▁Delhi": 4819,
      "_Sh": 4820,
      "▁Official": 4821,
      "▁article": 4822,
      "ட்சிய": 4823,
      "pringer": 4824,
      "ார்.": 4825,
      "▁Hinduism": 4826,
      "▁./பகுப்பு:Articles\\_with\\_": 4827,
      ".html)": 4828,
      "▁தேசிய": 4829,
      "▁உற்பத்தி": 4830,
      "Report": 4831,
      "worldbank.org/": 4832,
      "ுகலாய": 4833,
      "emocracy": 4834,
      "3.\n": 4835,
      "Gua": 4836,
      "JIJ": 4837,
      "NA": 4838,
      "Zva": 4839,
      "eign": 4840,
      "page": 4841,
      "▁ci": 4842,
      "orical": 4843,
      "▁[m": 4844,
      "entr": 4845,
      "▁\"United": 4846,
      "ances": 4847,
      "eral_": 4848,
      "erritory": 4849,
      "▁(1,": 4850,
      "-16": 4851,
      "ada": 4852,
      "▁CE": 4853,
      "rief": 4854,
      "253": 4855,
      "266": 4856,
      "267": 4857,
      "_Summit": 4858,
      "▁[Singh": 4859,
      "ineering": 4860,
      "▁[Dyson": 4861,
      "endra": 4862,
      "](https://en.wikipedia.org/wiki/Re": 4863,
      "/cb": 4864,
      "▁used": 4865,
      "_in_South_Asia": 4866,
      "ast_Asia_Summit": 4867,
      "GuaJIJ": 4868,
      "ZvaGuaJIJ": 4869,
      "ZvaGuaJIJgo": 4870,
      "-प": 4871,
      ".co": 4872,
      "400": 4873,
      "AS": 4874,
      "Con": 4875,
      "C-0": 4876,
      "Vu": 4877,
      "ZVu": 4878,
      "_अ": 4879,
      "_ए": 4880,
      "_இந்திய": 4881,
      "dition": 4882,
      "election": 4883,
      "known": 4884,
      "kZVu": 4885,
      "mal": 4886,
      "med": 4887,
      "pan": 4888,
      "ras": 4889,
      "ंका": 4890,
      "कट": 4891,
      "गंगा": 4892,
      "देव": 4893,
      "भो": 4894,
      "मेर": 4895,
      "ल](https://hi.wikipedia.org/wiki/": 4896,
      "लंका": 4897,
      "हैद": 4898,
      "िला": 4899,
      "ीमा": 4900,
      "ूह": 4901,
      "्म": 4902,
      "ள்க": 4903,
      "జ్": 4904,
      "వరి": 4905,
      "శ్చ": 4906,
      "ిన్న": 4907,
      "ెల": 4908,
      "▁ट": 4909,
      "▁டைம்ஸ்": 4910,
      "▁[ओ": 4911,
      "▁[உ": 4912,
      "▁\"ओ": 4913,
      "▁\"భారతదేశ": 4914,
      "▁\"Oxford": 4915,
      "20)": 4916,
      "208": 4917,
      "aria": 4918,
      "ியாக": 4919,
      "](https://hi.wikipedia.org/wiki/आ": 4920,
      "icon": 4921,
      "▁social": 4922,
      "్రె": 4923,
      "राबाद": 4924,
      "த்தான்": 4925,
      "ाने": 4926,
      "र्ना": 4927,
      "ISO": 4928,
      "▁made": 4929,
      "▁வடி": 4930,
      "▁Rothermund": 4931,
      "olon": 4932,
      "fir": 4933,
      "▁अप्र": 4934,
      "ானவை": 4935,
      "_का_": 4936,
      "▁नी": 4937,
      "harm": 4938,
      "ాలు\n": 4939,
      "నిస్తాన్": 4940,
      "▁మధ్య": 4941,
      "▁संबंध": 4942,
      "म्प": 4943,
      "हिमा": 4944,
      "त्तीस": 4945,
      "र्वो": 4946,
      "▁भाषाओं": 4947,
      "](https://te.wikipedia.org/wiki/భారతదేశంలో": 4948,
      "▁करने": 4949,
      "िरपे": 4950,
      "वायु": 4951,
      "స్థాన్": 4952,
      "ीपी": 4953,
      "ducation": 4954,
      "▁मेला\")": 4955,
      "▁हुए": 4956,
      "▁உலகின்": 4957,
      "▁పేజీ": 4958,
      "ographical": 4959,
      "_Informatics": 4960,
      "भीम": 4961,
      "ணுவ": 4962,
      "▁कार्य": 4963,
      "మ్మూ": 4964,
      "▁[हिन्दी](https://hi.wikipedia.org/wiki/": 4965,
      "▁\"భారతదేశంలో": 4966,
      "aranth": 4967,
      "▁చూసిన": 4968,
      "▁తేదీ:": 4969,
      "हैदराबाद": 4970,
      "శ్చి": 4971,
      "र्नाटक": 4972,
      "िरपेक्ष": 4973,
      "▁పేజీని": 4974,
      "_Informatics_Centre": 4975,
      "123": 4976,
      "4-3": 4977,
      "hat": 4978,
      "vid": 4979,
      "eries": 4980,
      "▁(b": 4981,
      "lopedia": 4982,
      "▁2014.": 4983,
      "bert": 4984,
      "▁GDP": 4985,
      "▁relations": 4986,
      "_Re": 4987,
      "order": 4988,
      "▁\"History": 4989,
      "▁play": 4990,
      "cyclopedia": 4991,
      "▁status": 4992,
      "fghanistan": 4993,
      "-with": 4994,
      ".JPG": 4995,
      "0)": 4996,
      "2-1": 4997,
      "318": 4998,
      "5%": 4999,
      "9,": 5000,
      "_14": 5001,
      "az": 5002,
      "day": 5003,
      "eb": 5004,
      "rans": 5005,
      "y=": 5006,
      "yer": 5007,
      "தம": 5008,
      "ிலை": 5009,
      "▁archived": 5010,
      "orn": 5011,
      "▁[4": 5012,
      "▁[Oxford": 5013,
      "▁\"ஆ": 5014,
      "▁\"தி": 5015,
      "arli": 5016,
      "esti": 5017,
      "](https://ta.wikipedia.org/wiki/தி": 5018,
      "▁(2014": 5019,
      "ம்,": 5020,
      "▁sh": 5021,
      "▁sp": 5022,
      "loc": 5023,
      "217": 5024,
      "▁வந்த": 5025,
      "▁அக": 5026,
      "105": 5027,
      "ையை": 5028,
      "▁Gandhi": 5029,
      "▁Nadu": 5030,
      "22-9": 5031,
      "Special:EditPage/": 5032,
      "abha": 5033,
      "▁Wiki": 5034,
      "▁began": 5035,
      "ainism": 5036,
      "▁[Ministry": 5037,
      "ாலி": 5038,
      "த்துவ": 5039,
      "ance/": 5040,
      "▁area": 5041,
      "india-gl": 5042,
      "னித": 5043,
      "▁மூல": 5044,
      "074": 5045,
      "/files/": 5046,
      "ிழக்கு": 5047,
      "▁நிறுவன": 5048,
      "▁high": 5049,
      "Spear1990": 5050,
      "Special:EditPage/Template:": 5051,
      "india-glance/": 5052,
      "338": 5053,
      "63": 5054,
      "7.\n": 5055,
      "my": 5056,
      "vent": 5057,
      "▁ra": 5058,
      "tered": 5059,
      "anor": 5060,
      "▁(ed.": 5061,
      "ichell": 5062,
      "ament": 5063,
      "acy": 5064,
      "lowing": 5065,
      "ator": 5066,
      "ight": 5067,
      "▁H.": 5068,
      "▁2026": 5069,
      "▁[\"A": 5070,
      "undament": 5071,
      "issing": 5072,
      "olden": 5073,
      "▁left": 5074,
      "ollingham": 5075,
      "-largest": 5076,
      "flu": 5077,
      "do-Aryan": 5078,
      ".ni": 5079,
      "2%": 5080,
      "5/": 5081,
      "6)\n": 5082,
      ">.\n": 5083,
      "be": 5084,
      "cess": 5085,
      "eat": 5086,
      "ject": 5087,
      "lack": 5088,
      "mill": 5089,
      "war": 5090,
      "ym": 5091,
      "yam": 5092,
      "ंह": 5093,
      "गल": 5094,
      "झार": 5095,
      "डिया": 5096,
      "तट": 5097,
      "निक": 5098,
      "पान": 5099,
      "मालय": 5100,
      "हन": 5101,
      "हरी": 5102,
      "ाय": 5103,
      "िस्तान": 5104,
      "िहार": 5105,
      "ஜி": 5106,
      "லிய": 5107,
      "షన్": 5108,
      "హ్": 5109,
      "ెలు": 5110,
      "▁ऑ": 5111,
      "▁ஐ": 5112,
      "▁राष्ट्र": 5113,
      "▁लेख": 5114,
      "pect": 5115,
      "▁[च": 5116,
      "erg": 5117,
      "](https://hi.wikipedia.org/wiki/ओ": 5118,
      "▁कुल": 5119,
      "isc": 5120,
      "edie": 5121,
      "them": 5122,
      "acmill": 5123,
      "adhy": 5124,
      "▁Chand": 5125,
      "](https://te.wikipedia.org/wiki/అ": 5126,
      "▁கணக்கெடு": 5127,
      "local": 5128,
      "▁தோ": 5129,
      "र्ष": 5130,
      "▁केन्द्र": 5131,
      "▁ही": 5132,
      "▁होत": 5133,
      "▁River": 5134,
      "rim": 5135,
      "-0-521": 5136,
      "ियां": 5137,
      "▁बन": 5138,
      "▁बा": 5139,
      "ண்ட்": 5140,
      "▁N.": 5141,
      "▁नद": 5142,
      "▁नहीं": 5143,
      "▁से](http://": 5144,
      "▁वार": 5145,
      "▁name": 5146,
      "రియా": 5147,
      "पुरा": 5148,
      "epal": 5149,
      "स्ला": 5150,
      "▁మార్": 5151,
      "▁उद्यान": 5152,
      "▁है।[[": 5153,
      "▁शताब्": 5154,
      "ternal": 5155,
      "▁रहा": 5156,
      "▁பெற்ற": 5157,
      "ప్రపంచ": 5158,
      "viol": 5159,
      "विशेष:EditPage/": 5160,
      "▁मेला](https://hi.wikipedia.org/wiki/": 5161,
      "னர்.[[": 5162,
      "Stein2010),": 5163,
      "▁సంస్కృతి": 5164,
      "श्चिमी": 5165,
      "गणराज्य": 5166,
      "దీవ": 5167,
      "Dyson2018),": 5168,
      "▁प्राप्त": 5169,
      "▁estim": 5170,
      "िल्ली": 5171,
      "▁स्रोत/978-1": 5172,
      "](https://hi.wikipedia.org/wiki/विशेष:पुस्तक_स्रोत/978-1": 5173,
      "ிரித்தானிய": 5174,
      "ஸ்தான்": 5175,
      "▁भूम": 5176,
      "▁गणराज्य": 5177,
      "union_ter": 5178,
      "▁चुनाव": 5179,
      "रेलू": 5180,
      "▁[पुरालेखित](https://web.archive.org/web/201": 5181,
      "ZvaGuaJIJgoC&pg=PA": 5182,
      "र्वोच्च": 5183,
      "edieval": 5184,
      "acmillan": 5185,
      "विशेष:EditPage/साँचा:": 5186,
      "3]](https://en.wikipedia.org/wiki/India#cite_note-FOOTNOTE": 5187,
      "_&": 5188,
      "nc": 5189,
      "thnic": 5190,
      "▁(India": 5191,
      "▁them": 5192,
      "-00": 5193,
      "entury": 5194,
      "▁SAARC": 5195,
      "vel": 5196,
      "▁country": 5197,
      "109": 5198,
      "-3)": 5199,
      "hatt": 5200,
      "-85": 5201,
      "▁India\").": 5202,
      "▁non-": 5203,
      "▁rate": 5204,
      "MetcalfMetcalf2012": 5205,
      "▁[Kulke": 5206,
      "o-operation": 5207,
      "](https://en.wikipedia.org/wiki/History": 5208,
      "ongress2004": 5209,
      "▁dispu": 5210,
      "▁2006](https://en.wikipedia.org/wiki/India#CITEREFMetcalfMetcalf2006),": 5211,
      "▁article:": 5212,
      "-27": 5213,
      "/ark": 5214,
      "3%": 5215,
      "4,": 5216,
      "520": 5217,
      "5]](https://ta.wikipedia.org/wiki/இந்தியா#cite_note-FOOTNOTE": 5218,
      "British": 5219,
      "Tritsch": 5220,
      "Un": 5221,
      "ds": 5222,
      "dep": 5223,
      "f.fr": 5224,
      "gram": 5225,
      "o.": 5226,
      "கார": 5227,
      "டா": 5228,
      "தை": 5229,
      "வட": 5230,
      "ொது": 5231,
      "▁ஜ": 5232,
      ":/121": 5233,
      "ality": 5234,
      "ediff": 5235,
      "thehindu": 5236,
      "ப்பா": 5237,
      "ப்பாட்ட": 5238,
      "▁pre": 5239,
      "▁கூட்ட": 5240,
      "ull": 5241,
      "00)": 5242,
      "▁Bengal": 5243,
      "▁சட்ட": 5244,
      "index": 5245,
      "ages/": 5246,
      "▁உண": 5247,
      "▁உள்நாட்டு": 5248,
      ".gov.in": 5249,
      "own": 5250,
      "arty": 5251,
      "48/cb": 5252,
      "%20இந்தியா\n": 5253,
      "ம்பி": 5254,
      "ணிக்க": 5255,
      "engali": 5256,
      "ated\\_parameters#": 5257,
      "▁\"National": 5258,
      "rough": 5259,
      "reek": 5260,
      "Singh2009),": 5261,
      "\\_with\\_dep": 5262,
      "ஞ்சிய": 5263,
      "ship": 5264,
      "actbook": 5265,
      "ீனா": 5266,
      "ூர்வ": 5267,
      "-lead": 5268,
      "▁./பகுப்பு:Pages\\_containing\\_": 5269,
      "bnf.fr": 5270,
      "▁பட்டியல்\")": 5271,
      "cite\\_templates": 5272,
      "recated\\_parameters#": 5273,
      "ymbols": 5274,
      "▁காரண": 5275,
      "/ark:/121": 5276,
      "gramme": 5277,
      "\\_with\\_deprecated\\_parameters#": 5278,
      "▁./பகுப்பு:Pages\\_containing\\_cite\\_templates": 5279,
      "bnf.fr/ark:/121": 5280,
      "\\_with\\_deprecated\\_parameters#%20இந்தியா\n": 5281,
      "▁./பகுப்பு:Pages\\_containing\\_cite\\_templates\\_with\\_deprecated\\_parameters#%20இந்தியா\n": 5282,
      "bnf.fr/ark:/12148/cb": 5283,
      "-D": 5284,
      "122": 5285,
      "2)\n": 5286,
      "3–": 5287,
      "3-8": 5288,
      "Ministry_of_": 5289,
      "aha": 5290,
      "f/": 5291,
      "ii": 5292,
      "ots": 5293,
      "pro": 5294,
      "rof": 5295,
      "hief": 5296,
      "reed": 5297,
      "▁(a)": 5298,
      "▁All": 5299,
      "▁culture": 5300,
      "21)": 5301,
      "0000": 5302,
      "▁This": 5303,
      "▁Tamil": 5304,
      "▁eastern": 5305,
      "▁Himalay": 5306,
      "ountain": 5307,
      "osp": 5308,
      "aju": 5309,
      "ligions": 5310,
      "▁Valley": 5311,
      "▁[Routledge": 5312,
      "▁\"Routledge": 5313,
      "ondon": 5314,
      "gisl": 5315,
      "cording": 5316,
      "](https://doi.org/10.10": 5317,
      "▁(b)": 5318,
      "-ஆ": 5319,
      "-and": 5320,
      "-विज्ञान": 5321,
      "129": 5322,
      "4]](https://ta.wikipedia.org/wiki/இந்தியா#cite_note-FOOTNOTE": 5323,
      "6]](https://en.wikipedia.org/wiki/India#cite_note-": 5324,
      "7).": 5325,
      "9).": 5326,
      "Collingham": 5327,
      "New": 5328,
      "_आ": 5329,
      "_उ": 5330,
      "_व": 5331,
      "_26": 5332,
      "_24": 5333,
      "_देश": 5334,
      "jpg": 5335,
      "ually": 5336,
      "ंच": 5337,
      "ईरा": 5338,
      "छत्तीस": 5339,
      "त्व": 5340,
      "फल": 5341,
      "फ्रीका": 5342,
      "लग": 5343,
      "लयाल": 5344,
      "स\")": 5345,
      "सून": 5346,
      "िंध": 5347,
      "ीच": 5348,
      "१९": 5349,
      "தற்கு": 5350,
      "யு": 5351,
      "றவு": 5352,
      "ொகை": 5353,
      "ం\"),": 5354,
      "ంత్రి": 5355,
      "ఆఫ్": 5356,
      "కత": 5357,
      "కై": 5358,
      "క్య": 5359,
      "దాయ": 5360,
      "రే": 5361,
      "లంక": 5362,
      "వీ": 5363,
      "శ్రీ": 5364,
      "షి": 5365,
      "సు": 5366,
      "▁ఏ": 5367,
      "▁his": 5368,
      "people": 5369,
      "▁[ஆ": 5370,
      "▁[ஐ": 5371,
      "▁[సి": 5372,
      "ency": 5373,
      "▁\"च": 5374,
      "▁\"ल": 5375,
      "onom": 5376,
      "aries": 5377,
      "](https://en.wikipedia.org/wiki/South": 5378,
      "ந்தி": 5379,
      "](https://hi.wikipedia.org/wiki/च": 5380,
      "▁कई": 5381,
      "▁कश्मीर": 5382,
      "▁(c": 5383,
      "▁பய": 5384,
      "▁सद": 5385,
      "▁सैन": 5386,
      "▁मुख": 5387,
      "▁power": 5388,
      "▁Centre": 5389,
      "](https://te.wikipedia.org/wiki/చ": 5390,
      "▁पर्वत": 5391,
      "▁Summit\")": 5392,
      "▁Stud": 5393,
      "▁கரு": 5394,
      "▁கிரா": 5395,
      "ults": 5396,
      "▁2011.": 5397,
      "▁member": 5398,
      "▁movement": 5399,
      "▁minister": 5400,
      "▁இதன்": 5401,
      "▁women": 5402,
      "▁total": 5403,
      "26.": 5404,
      "స్సా": 5405,
      "वित": 5406,
      "▁పరి": 5407,
      "▁పార్టీ": 5408,
      "28.": 5409,
      "_का": 5410,
      "▁दि": 5411,
      "న్‌": 5412,
      "ண்.": 5413,
      "▁बीच": 5414,
      "▁से](http://www.": 5415,
      "force": 5416,
      "ताज": 5417,
      "▁కు": 5418,
      "▁என்ப": 5419,
      "क्षा": 5420,
      "ecur": 5421,
      "eccan": 5422,
      "न्दिर": 5423,
      "▁आधिकारिक": 5424,
      "▁వచ్చ": 5425,
      "स्थ": 5426,
      "▁गु": 5427,
      "▁उत्पाद": 5428,
      "ाद्वीप": 5429,
      "_मंदिर": 5430,
      "▁संस्कृति": 5431,
      "लेट": 5432,
      "प्रा": 5433,
      "ముద్ర": 5434,
      "▁इन": 5435,
      "िस्ट": 5436,
      "▁பெய": 5437,
      "▁Ved": 5438,
      "33-7": 5439,
      "▁करोड़": 5440,
      "uddhism": 5441,
      "aking": 5442,
      "](https://ta.wikipedia.org/wiki/இந்திய_அ": 5443,
      "▁போட்டி": 5444,
      "▁अनु": 5445,
      "केर": 5446,
      "▁[अंग्रेज़": 5447,
      "గాంధీ": 5448,
      "▁ஆகும்.": 5449,
      "▁जनगणना": 5450,
      "▁हैं।\n": 5451,
      "களின்_பட்டியல்": 5452,
      "▁நிலை": 5453,
      "▁राजनी": 5454,
      "▁\"पंजाब": 5455,
      "र्थव्यवस्था": 5456,
      "Oxford_University_Press": 5457,
      "నేపాల": 5458,
      "▁[पंजाब": 5459,
      "करण": 5460,
      "](https://books.google.com/books?id=3TRtDwAAQBAJ&pg=PA": 5461,
      "ource": 5462,
      "8/8": 5463,
      "▁होता": 5464,
      "ब्ब": 5465,
      "▁పేరు": 5466,
      "▁जिसमें": 5467,
      "▁Empire\")": 5468,
      "హిందీ": 5469,
      "-4020": 5470,
      "fication": 5471,
      "▁कारण": 5472,
      "ोर्ड": 5473,
      "_मेला?action=edit&redlink=1": 5474,
      "▁చెయ్య": 5475,
      "-78074": 5476,
      "गोआ": 5477,
      "▁కూడా": 5478,
      "Navbox": 5479,
      "श्रीलंका": 5480,
      "rishnan": 5481,
      "▁(2018),": 5482,
      "▁Persian": 5483,
      "▁2010](https://en.wikipedia.org/wiki/India#CITEREFStein2010),": 5484,
      "-108-6": 5485,
      "ultanate": 5486,
      "▁Press](https://en.wikipedia.org/wiki/Oxford_University_Press": 5487,
      "▁தொழில்": 5488,
      "र्सिट": 5489,
      "yanmar": 5490,
      "ministrative": 5491,
      "ంగీతం": 5492,
      "ముంబై": 5493,
      "ूनिवर्सिट": 5494,
      "kZVuDwAAQBAJ&pg=PA": 5495,
      "▁வடிவ": 5496,
      "శ్చిమ": 5497,
      "Spear199024": 5498,
      "▁మార్గ": 5499,
      "▁(India)\")": 5500,
      "▁[अंग्रेज़ी](https://hi.wikipedia.org/wiki/अ": 5501,
      "▁చెయ్యబడ": 5502,
      "-78074-108-6": 5503,
      "\"[[": 5504,
      "-e": 5505,
      "Ethnologue": 5506,
      "code": 5507,
      "iam": 5508,
      "ants": 5509,
      "2020": 5510,
      "the-": 5511,
      "ics": 5512,
      "los": 5513,
      "lief": 5514,
      "▁Punjab": 5515,
      "▁div": 5516,
      "igr": 5517,
      "289": 5518,
      "ly,": 5519,
      "▁only": 5520,
      "▁1960": 5521,
      "akhand": 5522,
      "▁hum": 5523,
      "▁Linguistic": 5524,
      "709": 5525,
      "sey": 5526,
      "▁V.": 5527,
      "ikkim": 5528,
      "worldcat": 5529,
      "class": 5530,
      "▁control": 5531,
      "ibcode": 5532,
      "▁lead": 5533,
      "▁2019.\n": 5534,
      "National_Informatics_Centre": 5535,
      "%7C": 5536,
      "▁prime": 5537,
      "document": 5538,
      "aldives": 5539,
      "National_Informatics_Centre2005": 5540,
      "%3": 5541,
      "*)": 5542,
      "09": 5543,
      "0–": 5544,
      "125": 5545,
      "219": 5546,
      "2]](https://ta.wikipedia.org/wiki/இந்தியா#cite_note-FOOTNOTE": 5547,
      "Davidson": 5548,
      "Kashmir": 5549,
      "PK:": 5550,
      "_17": 5551,
      "_38": 5552,
      "b/": 5553,
      "ling": 5554,
      "mil": 5555,
      "ning": 5556,
      "shar": 5557,
      "uth": 5558,
      "ெற்கா": 5559,
      "ௌத்த": 5560,
      "–4": 5561,
      "–24": 5562,
      "pecial": 5563,
      "en,": 5564,
      "ines": 5565,
      "alog": 5566,
      "ந்தமான்": 5567,
      "▁பி": 5568,
      "ப்பை": 5569,
      "▁south": 5570,
      "க்கம்": 5571,
      "த்தர": 5572,
      "த்திர": 5573,
      "ular": 5574,
      "▁வை": 5575,
      "▁விரி": 5576,
      "▁Man": 5577,
      "linkim": 5578,
      "ங்கம்": 5579,
      "▁நு": 5580,
      "▁B.": 5581,
      "_(இந்தியா)": 5582,
      "▁ஆண்ட": 5583,
      "elang": 5584,
      "407": 5585,
      "▁human": 5586,
      "ummer": 5587,
      "%2C_India": 5588,
      "▁depend": 5589,
      "ocke": 5590,
      "ப்_பேரரசு": 5591,
      "2014-p": 5592,
      "▁life": 5593,
      "do-P": 5594,
      "ப்படுகிற": 5595,
      "_from": 5596,
      "▁ed.).": 5597,
      "▁வரலா": 5598,
      "ed/linkim": 5599,
      "▁சேர்ந்த": 5600,
      "ildlife": 5601,
      "nclm.nic.in/shar": 5602,
      "Davidson2014-p": 5603,
      "ed/linkimages/": 5604,
      "nclm.nic.in/shared/linkimages/": 5605,
      "-asia": 5606,
      "ES": 5607,
      "_9": 5608,
      "ez": 5609,
      "gu": 5610,
      "rust": 5611,
      "s_of_India": 5612,
      "▁ed": 5613,
      "▁Book": 5614,
      "▁36": 5615,
      "▁6.": 5616,
      "](Category:": 5617,
      "arl": 5618,
      "tatis": 5619,
      "reen": 5620,
      "cise": 5621,
      "▁(2007": 5622,
      "▁influ": 5623,
      "urry": 5624,
      "very": 5625,
      "003": 5626,
      "▁des": 5627,
      "286": 5628,
      "▁John": 5629,
      "ounci": 5630,
      "_Cor": 5631,
      "▁\"Category:": 5632,
      "▁tree": 5633,
      "_East_Asia_Summit": 5634,
      "](https://en.wikipedia.org/wiki/List_of_countries_by": 5635,
      "putra": 5636,
      "▁composed": 5637,
      "odiversity": 5638,
      "_Islands": 5639,
      "volution": 5640,
      "timesofindia.indiatimes.com/india/": 5641,
      "CS1\\_": 5642,
      "ological": 5643,
      "Library_of_C": 5644,
      ".uk/": 5645,
      "-S": 5646,
      "-for": 5647,
      "418": 5648,
      "MAAJ": 5649,
      "Tarlo": 5650,
      "_0": 5651,
      "_వ": 5652,
      "ihar": 5653,
      "p?": 5654,
      "ward": 5655,
      "जम्मू": 5656,
      "पि": 5657,
      "भ्यता": 5658,
      "मो": 5659,
      "लों": 5660,
      "शा": 5661,
      "िख": 5662,
      "िम": 5663,
      "ीगढ़": 5664,
      "ॉक": 5665,
      "தம்": 5666,
      "பெ": 5667,
      "மே": 5668,
      "ாட்சி": 5669,
      "ூக": 5670,
      "గర": 5671,
      "టక": 5672,
      "టా": 5673,
      "దార": 5674,
      "నీ": 5675,
      "రో": 5676,
      "సభ": 5677,
      "ెద్ద": 5678,
      "▁ओ": 5679,
      "▁46": 5680,
      "▁[இந்தியா": 5681,
      "▁[वि": 5682,
      "▁[सा": 5683,
      "▁\"ग": 5684,
      "▁\"உ": 5685,
      "▁\"సి": 5686,
      "ந்தா": 5687,
      "](https://hi.wikipedia.org/wiki/ल": 5688,
      "▁कु": 5689,
      "ominal": 5690,
      "2013": 5691,
      "ootb": 5692,
      "भारत)": 5693,
      "1967": 5694,
      "▁பின்": 5695,
      "▁सूचना": 5696,
      "▁मध्य": 5697,
      "▁महासागर": 5698,
      "▁sector": 5699,
      "](https://te.wikipedia.org/wiki/భారత_": 5700,
      "▁கல": 5701,
      "url": 5702,
      "urban": 5703,
      "ानव": 5704,
      "र्ज": 5705,
      "ver,": 5706,
      "▁mar": 5707,
      "▁அடிப்படையில்": 5708,
      "சிந்து": 5709,
      "tical_": 5710,
      ".[[3": 5711,
      "108": 5712,
      "links": 5713,
      "▁David": 5714,
      "▁పు": 5715,
      "▁जी": 5716,
      "ற்றி": 5717,
      "ालदीव": 5718,
      "▁சா": 5719,
      "▁दशक": 5720,
      "ेशन": 5721,
      "ेशिया": 5722,
      "115": 5723,
      "▁Gu": 5724,
      "▁Nehru": 5725,
      "రాజ్య": 5726,
      "▁[\"P": 5727,
      "AAMAAJ": 5728,
      "▁కేంద్రపాలిత": 5729,
      "main": 5730,
      "क्षर": 5731,
      "षाण": 5732,
      "*](https://web.archive.org/web/201": 5733,
      "ிலான": 5734,
      "▁మా": 5735,
      "▁शक्ति": 5736,
      "▁शिक्षा": 5737,
      "काश": 5738,
      "▁చే": 5739,
      "ము\")": 5740,
      "ublisher": 5741,
      "త్స": 5742,
      "ங்களின்": 5743,
      "ंडीगढ़": 5744,
      "▁రాజ్య": 5745,
      "▁लोग": 5746,
      "▁எண்ணிக்க": 5747,
      "Asher2006": 5748,
      "AsherAsher2006": 5749,
      "▁क्षेत्रीय": 5750,
      "వాతంత్ర": 5751,
      "DwAAQBAJ": 5752,
      "ரியா": 5753,
      "▁पुरा": 5754,
      "जनसंख्या": 5755,
      "▁जनसंख्या": 5756,
      "ஞ்சா": 5757,
      "▁దేశాల": 5758,
      "▁वर्ग": 5759,
      "த்திற்கு": 5760,
      "ப்படுகிறது.": 5761,
      "▁second": 5762,
      "లాదేశ్": 5763,
      "KulkeRothermund200": 5764,
      "]](https://hi.wikipedia.org/wiki/भारत#cite_note-FOOTNOTEStein1998": 5765,
      "]](https://hi.wikipedia.org/wiki/भारत#cite_note-FOOTNOTESingh2009": 5766,
      "స్తు": 5767,
      "▁సామ్రాజ్యం](https://te.wikipedia.org/wiki/": 5768,
      "ote:": 5769,
      "ంగ్లాదేశ్": 5770,
      "▁భాషలు": 5771,
      "ారు.": 5772,
      "mitt": 5773,
      "मुख्य": 5774,
      "cyclop": 5775,
      "%E0%A4%B": 5776,
      "_ప్రా": 5777,
      "▁स्थित": 5778,
      "▁குறிப்பி": 5779,
      "hasha": 5780,
      "్రిటి": 5781,
      "▁பேரரசு\")": 5782,
      "▁అధికార": 5783,
      "त्तराखण्ड": 5784,
      "குடியரசு": 5785,
      "troduction": 5786,
      "ూర్పు": 5787,
      "▁Quote:": 5788,
      "▁अप्रैल": 5789,
      "हिमाचल": 5790,
      "▁लेख:": 5791,
      "pectancy": 5792,
      "▁शताब्दी": 5793,
      "కైవు": 5794,
      "Tarlo1996": 5795,
      "ootball": 5796,
      "1-3": 5797,
      "2nd": 5798,
      "350": 5799,
      "534": 5800,
      "Jha": 5801,
      "_r": 5802,
      "ather": 5803,
      "fo": 5804,
      "garh": 5805,
      "nam": 5806,
      "ploy": 5807,
      "que": 5808,
      "yy": 5809,
      "▁[c": 5810,
      "artition": 5811,
      "reme": 5812,
      "edu": 5813,
      "leav": 5814,
      "▁A.": 5815,
      "urch": 5816,
      "▁western": 5817,
      "▁app": 5818,
      "india.com/": 5819,
      "ema": 5820,
      "▁Europe": 5821,
      "▁Journal": 5822,
      "imach": 5823,
      "170": 5824,
      "▁International": 5825,
      "ucation": 5826,
      "dex": 5827,
      "opular": 5828,
      "▁development": 5829,
      "1):": 5830,
      "ext": 5831,
      "34)": 5832,
      "_pro": 5833,
      "quality": 5834,
      "1971": 5835,
      "▁[Fisher": 5836,
      "▁employ": 5837,
      ".html).": 5838,
      "Fisher2018),": 5839,
      "urrent": 5840,
      "catalog": 5841,
      "ultiple": 5842,
      "itzel": 5843,
      "▁groups": 5844,
      "Library_of_Congress2004": 5845,
      "-an": 5846,
      "1]](https://ta.wikipedia.org/wiki/இந்தியா#cite_note-FOOTNOTE": 5847,
      "223": 5848,
      "5).": 5849,
      "6.\n": 5850,
      "CL": 5851,
      "SAARC": 5852,
      "aury": 5853,
      "hind": 5854,
      "ij": 5855,
      "mrits": 5856,
      "oin": 5857,
      "னால்": 5858,
      "வண": 5859,
      "ஷ்": 5860,
      "ுடன்": 5861,
      "▁·": 5862,
      "ortheast": 5863,
      "▁[ஒக்ஸ்போர்ட்": 5864,
      "▁\"ஒக்ஸ்போர்ட்": 5865,
      "hic": 5866,
      "hip": 5867,
      "](https://ta.wikipedia.org/wiki/ஆ": 5868,
      "](https://ta.wikipedia.org/wiki/ஒக்ஸ்போர்ட்": 5869,
      "asthan": 5870,
      "்டு": 5871,
      "▁பண்ப": 5872,
      "tro": 5873,
      "▁கல்": 5874,
      "\"),[[": 5875,
      "ங்கிரசு": 5876,
      "raj": 5877,
      "10)": 5878,
      "▁B.;": 5879,
      "24)": 5880,
      "indic": 5881,
      "▁economy": 5882,
      "oung": 5883,
      "▁1965": 5884,
      "ச்சு": 5885,
      "_Affairs": 5886,
      "களுக்கு": 5887,
      "]](https://en.wikipedia.org/wiki/India#cite_note-FOOTNOTEMetcalfMetcalf2006": 5888,
      "▁*[தி": 5889,
      "வாய": 5890,
      "anka": 5891,
      "லாம்": 5892,
      "ountries/": 5893,
      "auto": 5894,
      "athur": 5895,
      "awahar": 5896,
      "india.gov.in/india-glance/": 5897,
      "▁துணை": 5898,
      "kingdom": 5899,
      "▁\"சிறப்பு:BookSources/978-0-19": 5900,
      "](https://ta.wikipedia.org/wiki/சிறப்பு:BookSources/978-0-19": 5901,
      "▁பொருட": 5902,
      "▁கோடி": 5903,
      "▁தொகை": 5904,
      "▁Chinese": 5905,
      "▁பதிப்பகம்](https://ta.wikipedia.org/wiki/ஒக்ஸ்போர்ட்": 5906,
      "▁ஆகியவை": 5907,
      "cript": 5908,
      "▁./பகுப்பு:Pages\\_using\\_": 5909,
      "ீவுகள்": 5910,
      "urton199": 5911,
      "ரசின்": 5912,
      "ென்னி": 5913,
      "Blurton199": 5914,
      "▁Minorities": 5915,
      "arnataka": 5916,
      "க்தி": 5917,
      "donesia": 5918,
      "▁வணிக": 5919,
      "awaharl": 5920,
      "▁பதிப்பகம்](https://ta.wikipedia.org/wiki/ஒக்ஸ்போர்ட்_பல்கலைக்கழகப்_பதிப்பகம்": 5921,
      "\",": 5922,
      "\";\n": 5923,
      "-ar": 5924,
      "-logo": 5925,
      ".\")\n": 5926,
      ".](https://upload.wikimedia.org/wikipedia/commons/thumb/": 5927,
      "/india-": 5928,
      "2)[[": 5929,
      "Allchin": 5930,
      "Census": 5931,
      "_5": 5932,
      "aul": 5933,
      "hu": 5934,
      "had": 5935,
      "▁35": 5936,
      "▁old": 5937,
      "erman": 5938,
      "arendra": 5939,
      "asing": 5940,
      "icob": 5941,
      "id.": 5942,
      "amp": 5943,
      "▁Society": 5944,
      "lies": 5945,
      "▁Policy": 5946,
      "▁billion": 5947,
      "atch": 5948,
      "▁mi": 5949,
      "▁Michael": 5950,
      "107": 5951,
      "▁Di": 5952,
      "emplate_": 5953,
      "-459": 5954,
      "▁these": 5955,
      "27)": 5956,
      "168": 5957,
      "_Publishing": 5958,
      "akes": 5959,
      "▁Kingdom": 5960,
      "▁before": 5961,
      "1.html": 5962,
      "ssam": 5963,
      "▁def": 5964,
      "▁contrib": 5965,
      "▁[National": 5966,
      "51-9": 5967,
      "onstitutional": 5968,
      "pura": 5969,
      "crease": 5970,
      "cms).": 5971,
      "▁(identifier)\"):[10.10": 5972,
      "Petraglia": 5973,
      "hristian": 5974,
      "ifferent": 5975,
      "PetragliaAllchin": 5976,
      "-r": 5977,
      "3]](https://ta.wikipedia.org/wiki/இந்தியா#cite_note-FOOTNOTE": 5978,
      "9/": 5979,
      "_राज": 5980,
      "_50": 5981,
      "aur": 5982,
      "ime": 5983,
      "oast": 5984,
      "ption": 5985,
      "yd": 5986,
      "को": 5987,
      "गत": 5988,
      "गू": 5989,
      "तृत": 5990,
      "म\")": 5991,
      "वल": 5992,
      "श्य": 5993,
      "षय": 5994,
      "हरा": 5995,
      "हित": 5996,
      "िनेमा": 5997,
      "ी.": 5998,
      "ृद्ध": 5999,
      "ेघ": 6000,
      "ண்கள்": 6001,
      "நாட": 6002,
      "பக": 6003,
      "ைப்ப": 6004,
      "ంజా": 6005,
      "గి": 6006,
      "టీ": 6007,
      "టాన్": 6008,
      "మంత్రి": 6009,
      "లను": 6010,
      "వె": 6011,
      "వరణ": 6012,
      "హదార": 6013,
      "ూచ": 6014,
      "▁హ": 6015,
      "▁భారతదేశ": 6016,
      "▁United": 6017,
      "▁[ग": 6018,
      "▁\"तमिल": 6019,
      "2025": 6020,
      "்தொகை": 6021,
      "rel": 6022,
      "▁सक": 6023,
      "▁India*.": 6024,
      "▁India\"](https://web.archive.org/web/201": 6025,
      "ப்பீ": 6026,
      "्यों": 6027,
      "க்கால": 6028,
      "్రమ": 6029,
      "▁far": 6030,
      "▁வளர்ச்சி": 6031,
      "▁அறி": 6032,
      "▁அதன்": 6033,
      "raz": 6034,
      ".[[4": 6035,
      "▁अव": 6036,
      "ists": 6037,
      "hap": 6038,
      "லைமை": 6039,
      "▁प्रेस": 6040,
      "▁प्रौद्योगिक": 6041,
      "्वतंत्रता": 6042,
      "▁regions": 6043,
      "▁religious": 6044,
      "Special:S": 6045,
      "▁[\"G": 6046,
      "భారతదేశ_": 6047,
      "_Ar": 6048,
      "களும்": 6049,
      "களாக": 6050,
      "▁కొ": 6051,
      "▁व्य": 6052,
      "aks": 6053,
      "மைக்": 6054,
      "▁వ్యా": 6055,
      "▁మత": 6056,
      "▁మతము": 6057,
      "▁शु": 6058,
      "▁संसद": 6059,
      "▁முடி": 6060,
      "తావరణ": 6061,
      "నాడు": 6062,
      "ियार": 6063,
      "▁\"British": 6064,
      "▁लोक": 6065,
      "▁राज्य\")": 6066,
      "▁exp": 6067,
      "हाय": 6068,
      "परमाणु": 6069,
      "ोलन": 6070,
      "▁ఉంది.": 6071,
      "ेली": 6072,
      "ய்வு": 6073,
      "▁like": 6074,
      "ahal": 6075,
      "▁ఇతర": 6076,
      "▁जाती": 6077,
      "earch/India": 6078,
      "▁राजवंश": 6079,
      "▁technology": 6080,
      "ాయి": 6081,
      "▁स्था": 6082,
      "▁स्थान": 6083,
      "ज्ज": 6084,
      "▁துற": 6085,
      "ణాసియా": 6086,
      "official": 6087,
      "▁प्राचीन": 6088,
      "▁था।": 6089,
      "▁धर्म\")": 6090,
      "▁நாடுகளின்": 6091,
      "ांग्लादेश": 6092,
      "టెడ్": 6093,
      "▁ఆర్కైవు": 6094,
      "ustralia": 6095,
      "ilgrim": 6096,
      "_New_Delhi": 6097,
      "महाद्वीप": 6098,
      "▁\"हिन्दी\")": 6099,
      "▁రైలు": 6100,
      "భూటాన్": 6101,
      "▁पहले": 6102,
      "_సామ్రాజ్యం": 6103,
      "AGE": 6104,
      "▁[हिन्दी](https://hi.wikipedia.org/wiki/हिन्दी": 6105,
      "](https://ta.wikipedia.org/wiki/தி_": 6106,
      "▁चुनावों": 6107,
      "▁सैन्य": 6108,
      "వాతంత్ర్య": 6109,
      "Special:Search/India": 6110,
      "-h": 6111,
      "-i": 6112,
      "2-6": 6113,
      "5-3": 6114,
      "7%": 6115,
      "Ex": 6116,
      "PT": 6117,
      "Se": 6118,
      "UT": 6119,
      "_ci": 6120,
      "_30": 6121,
      "_2008": 6122,
      "c/c": 6123,
      "sur": 6124,
      "iary": 6125,
      "enni": 6126,
      "](https://en.wikipedia.org/wiki/United": 6127,
      "▁(2011": 6128,
      "ical_": 6129,
      "▁independ": 6130,
      "▁painting": 6131,
      "▁Ad": 6132,
      "tock": 6133,
      "ravi": 6134,
      "iger": 6135,
      "emic": 6136,
      "ayback": 6137,
      "-349": 6138,
      "▁E.": 6139,
      "▁report": 6140,
      "opland": 6141,
      "▁Registrar": 6142,
      "-981": 6143,
      "uduch": 6144,
      "▁Ocean": 6145,
      "erry": 6146,
      "ajasthan": 6147,
      "a_d": 6148,
      "▁[↑](https://en.wikipedia.org/wiki/India#cite_ref-FOOTNOTEMetcalfMetcalf2006": 6149,
      "_Nadu": 6150,
      "ociation": 6151,
      "ender": 6152,
      "general_": 6153,
      "amil_Nadu": 6154,
      "illenni": 6155,
      "_Indian_general_": 6156,
      "▁ago": 6157,
      "▁along": 6158,
      "▁Thomas": 6159,
      "▁(identifier)\"):[10.": 6160,
      "](https://doi.org/10.": 6161,
      "first": 6162,
      ".nih": 6163,
      "indicator": 6164,
      "uducherry": 6165,
      "illennium": 6166,
      "_Indian_general_election": 6167,
      "-A": 6168,
      "Ne": 6169,
      "Taj": 6170,
      "_இந்தியா": 6171,
      "_36": 6172,
      "cog": 6173,
      "eu": 6174,
      "iz": 6175,
      "கமாக": 6176,
      "டல்": 6177,
      "மிய": 6178,
      "மலை": 6179,
      "யிர": 6180,
      "ாநில": 6181,
      "ிர்": 6182,
      "ெய": 6183,
      "▁°": 6184,
      "arch": 6185,
      "ed,": 6186,
      "anda": 6187,
      "▁படை": 6188,
      "ல்லை": 6189,
      "ப்பின்": 6190,
      "-100": 6191,
      "ட்டம்": 6192,
      "▁State": 6193,
      "த்தது.[[": 6194,
      "▁காட்ட": 6195,
      "uled": 6196,
      "▁main": 6197,
      "▁அடி": 6198,
      "▁att": 6199,
      "▁நா": 6200,
      "▁நடு": 6201,
      "architecture": 6202,
      "▁Games": 6203,
      "▁through": 6204,
      "_Act": 6205,
      "▁Francis": 6206,
      "overeign": 6207,
      "_in_India?action=edit&redlink=1": 6208,
      "ந்துள்ளது.": 6209,
      "-prov": 6210,
      "566": 6211,
      "olitical_": 6212,
      "ற்பட்ட": 6213,
      "▁[Government": 6214,
      "▁1997": 6215,
      "feb": 6216,
      "டியா": 6217,
      "gional": 6218,
      "ashmiri": 6219,
      "atter": 6220,
      "ுள்ளது.": 6221,
      "சியா\")": 6222,
      "▁நடத்த": 6223,
      "▁பொதுத்": 6224,
      "▁உயிரி": 6225,
      "▁குடியரசு": 6226,
      ".htm)": 6227,
      "▁Plateau": 6228,
      "Uttarakhand": 6229,
      "▁அரசியல்": 6230,
      "▁பெரும்பால": 6231,
      "ள்கை": 6232,
      "▁பயன்ப": 6233,
      "▁கிராம": 6234,
      "worldcat.org/": 6235,
      "pecially": 6236,
      "icobar": 6237,
      "1-1": 6238,
      "220": 6239,
      "2.\n": 6240,
      "3,": 6241,
      "3).": 6242,
      "Alig": 6243,
      "Bas": 6244,
      "C)": 6245,
      "ault": 6246,
      "hra": 6247,
      "ott": 6248,
      "s18": 6249,
      "tte": 6250,
      "ene": 6251,
      "International": 6252,
      "erved": 6253,
      "estic": 6254,
      "rew": 6255,
      "ising": 6256,
      "omestic": 6257,
      "ederal": 6258,
      "itchi": 6259,
      "astr": 6260,
      "▁Ag": 6261,
      "▁As": 6262,
      "▁Central": 6263,
      "▁Civil": 6264,
      "\\_articles": 6265,
      "atna": 6266,
      "ets": 6267,
      "▁man": 6268,
      "rak": 6269,
      "▁[\"M": 6270,
      "270": 6271,
      "▁near": 6272,
      "conomist": 6273,
      "_and_Development": 6274,
      "▁Asia:": 6275,
      "▁[British": 6276,
      "▁range": 6277,
      "▁Vedic": 6278,
      "overnment_of_India": 6279,
      "on-Alig": 6280,
      "AsherTalbot2008),": 6281,
      "▁right": 6282,
      "▁2024.": 6283,
      "KulkeRothermund2004),": 6284,
      "disha": 6285,
      "Environment": 6286,
      "merican": 6287,
      "langoff-1": 6288,
      "arliest": 6289,
      "itchison": 6290,
      "on-Aligned": 6291,
      "1.\n": 6292,
      "324": 6293,
      "Kumar": 6294,
      "Th": 6295,
      "]]": 6296,
      "_घ": 6297,
      "_द": 6298,
      "_சு": 6299,
      "_15": 6300,
      "business": 6301,
      "each": 6302,
      "hmed": 6303,
      "k:": 6304,
      "nia": 6305,
      "tar": 6306,
      "ंत": 6307,
      "अभि": 6308,
      "क्": 6309,
      "खन": 6310,
      "गान": 6311,
      "ग्व": 6312,
      "च्": 6313,
      "जं": 6314,
      "टान": 6315,
      "थिल": 6316,
      "दार": 6317,
      "फोर्ड": 6318,
      "ब्ल": 6319,
      "बेट": 6320,
      "भु": 6321,
      "मु": 6322,
      "यत": 6323,
      "यर": 6324,
      "रत": 6325,
      "वास": 6326,
      "ेड": 6327,
      "ैंक": 6328,
      "ैथिल": 6329,
      "ॉल": 6330,
      "ॉंग्रेस": 6331,
      "ोस": 6332,
      "ौसेना": 6333,
      "१८": 6334,
      "२००": 6335,
      "பர்": 6336,
      "யோ": 6337,
      "ரே": 6338,
      "ரசிய": 6339,
      "ంశ": 6340,
      "ఆర్": 6341,
      "ఉత్తర": 6342,
      "ఒడి": 6343,
      "కీయ": 6344,
      "గలు": 6345,
      "చు": 6346,
      "జరా": 6347,
      "తూర్పు": 6348,
      "భు": 6349,
      "మన్": 6350,
      "యి": 6351,
      "లస": 6352,
      "ీన": 6353,
      "ేక": 6354,
      "▁డ": 6355,
      "▁9.": 6356,
      "▁ईसा": 6357,
      "▁జాబితా": 6358,
      "org": 6359,
      "▁[ड": 6360,
      "▁[ल": 6361,
      "▁[భారతదేశ": 6362,
      "▁[दक्षिण": 6363,
      "▁[पाकिस्तान": 6364,
      "▁\"दक्षिण": 6365,
      "▁\"पाकिस्तान": 6366,
      "▁\"சிறப்பு:BookSources/978-81": 6367,
      "an,": 6368,
      "tici": 6369,
      "arth": 6370,
      "hild": 6371,
      "ester": 6372,
      "](https://hi.wikipedia.org/wiki/न": 6373,
      "](https://hi.wikipedia.org/wiki/पाकिस्तान": 6374,
      "](https://ta.wikipedia.org/wiki/சிறப்பு:BookSources/978-81": 6375,
      "asi": 6376,
      "▁பழ": 6377,
      "▁साल": 6378,
      "▁India](https://en.wikipedia.org/wiki/G": 6379,
      "▁मो": 6380,
      "▁मौ": 6381,
      "▁summits": 6382,
      "க்கலை": 6383,
      "\\_(": 6384,
      "राम": 6385,
      "▁மீ": 6386,
      "](https://hi.wikipedia.org/wiki/भारत_के": 6387,
      "ume": 6388,
      "▁Routledge": 6389,
      "▁இச": 6390,
      "▁would": 6391,
      "▁di": 6392,
      "igved": 6393,
      "▁*India": 6394,
      "▁పట్ట": 6395,
      "-0-19": 6396,
      "▁**జాతీయ": 6397,
      "_की_": 6398,
      "ாகி": 6399,
      "ర్\")": 6400,
      "▁உடைய": 6401,
      "▁2002": 6402,
      "▁ஆஃப்": 6403,
      "திவா": 6404,
      "ंगाना": 6405,
      "▁भारत\")": 6406,
      "fornia": 6407,
      "▁[\"H": 6408,
      "aryana": 6409,
      "_Ass": 6410,
      "_Agency": 6411,
      "▁Fund": 6412,
      "▁ne": 6413,
      "▁gen": 6414,
      "osh": 6415,
      "▁आर्थिक": 6416,
      "నిక": 6417,
      "-219": 6418,
      "க்குப்": 6419,
      "ంగ్రె": 6420,
      "▁సభ": 6421,
      "ड़ियाँ": 6422,
      "▁उन": 6423,
      "▁[Craven": 6424,
      "काता": 6425,
      "తాబ్": 6426,
      "▁इंडिया": 6427,
      "49-2": 6428,
      "ी](https://hi.wikipedia.org/wiki/द": 6429,
      "-107-0": 6430,
      "▁within": 6431,
      "ंडोन": 6432,
      "டைந்த": 6433,
      "_summits": 6434,
      "▁ప్రపంచ": 6435,
      "▁ప్రభు": 6436,
      "▁राज्यक्षेत्र": 6437,
      "issile": 6438,
      "▁विस्त": 6439,
      "▁विदेश": 6440,
      "▁[2](https://ta.wikipedia.org/wiki/இந்தியா#cite_ref-": 6441,
      "ணிம": 6442,
      "▁[1](https://ta.wikipedia.org/wiki/இந்தியா#cite_ref-": 6443,
      "எண்ணிம": 6444,
      "▁[![A": 6445,
      "_128": 6446,
      "ंग्रेजी": 6447,
      "ोलकाता": 6448,
      "ंध्र": 6449,
      "▁अन्त": 6450,
      "▁ఆసియా": 6451,
      "▁क्षेत्रों": 6452,
      "▁नेतृत": 6453,
      "▁இதுவாக": 6454,
      "केन्द्र": 6455,
      "▁\"अंग्रेज़ी": 6456,
      "ய்ய": 6457,
      "alifornia": 6458,
      "మ్రాజ్య": 6459,
      "](https://en.wikipedia.org/wiki/National": 6460,
      "▁देश\")": 6461,
      "▁जनवरी": 6462,
      "](https://en.wikipedia.org/wiki/List_of_SAARC": 6463,
      "हरिया": 6464,
      "ूर्वी": 6465,
      "पुरम": 6466,
      "▁मेला\"),": 6467,
      "க்கிண்ண": 6468,
      "ंग्रेज़ी_भाषा": 6469,
      "िशा": 6470,
      "attle": 6471,
      "గుజరా": 6472,
      "alayal": 6473,
      "▁२०१": 6474,
      "समिया": 6475,
      "▁సామ్రాజ్యం\")": 6476,
      "ज्ञाप": 6477,
      "न्नई": 6478,
      "▁மேற்கு": 6479,
      "बंधन": 6480,
      "▁पुरालेखित।,": 6481,
      "▁ஓவிய": 6482,
      "త్యేక": 6483,
      "రాష్ట్రపతి": 6484,
      "▁especially": 6485,
      "ప్ప": 6486,
      "▁मानसून": 6487,
      "▁உயர்": 6488,
      "_और_संघ": 6489,
      "▁కాశ్మీ": 6490,
      "▁రాజవంశం": 6491,
      "eserve": 6492,
      "▁युग": 6493,
      "रक्षा": 6494,
      "वादी": 6495,
      "▁இரண்டா": 6496,
      "▁स्वतंत्रता": 6497,
      "_के_आधार_पर_भारत_के_राज्यों_की_सूची": 6498,
      "industani": 6499,
      "तेलंगाना": 6500,
      "▁చెంద": 6501,
      "▁ఆర్ధిక": 6502,
      "%20%20%20%20": 6503,
      "चेन्नई": 6504,
      "▁बहुत": 6505,
      "treet": 6506,
      "पीठ": 6507,
      "▁స్థాన": 6508,
      "▁இராணுவ": 6509,
      "_Force": 6510,
      "తమిళనాడు": 6511,
      "EXT": 6512,
      "क्सफोर्ड": 6513,
      "▁निर्माण": 6514,
      "▁அதிகரித்து": 6515,
      "tlas": 6516,
      "त्रिपुरा": 6517,
      "ప్రధానమంత్రి": 6518,
      "_BRICS_summit": 6519,
      "గణతంత్ర": 6520,
      "▁క్రీడ": 6521,
      "▁ఉన్నాయి.": 6522,
      "rahmaputra": 6523,
      "तेलुगू": 6524,
      "entral_": 6525,
      "भीमबेट": 6526,
      "झारखंड": 6527,
      "-0-521-80904-7": 6528,
      "छत्तीसगढ़": 6529,
      "िंधु": 6530,
      "ఆఫ్ఘ": 6531,
      "శ్రీలంక": 6532,
      "షియా": 6533,
      "▁मुख्य": 6534,
      "న్‌ఫ": 6535,
      "నేపాల్": 6536,
      "ब्बत": 6537,
      "▁[अंग्रेज़ी](https://hi.wikipedia.org/wiki/अंग्रेज़ी_भाषा": 6538,
      "ெற்காசிய": 6539,
      "▁ओर": 6540,
      "▁कुछ": 6541,
      "வணச்": 6542,
      "अभिज्ञाप": 6543,
      "च्छ": 6544,
      "▁summits\")": 6545,
      "తాబ్ద": 6546,
      "](https://en.wikipedia.org/wiki/List_of_SAARC_summits": 6547,
      "भीमबेटका": 6548,
      "अभिज्ञापक": 6549,
      "-in": 6550,
      "4).": 6551,
      "Col": 6552,
      "Language": 6553,
      "PO": 6554,
      "TO": 6555,
      "_10": 6556,
      "_2010": 6557,
      "f/f": 6558,
      "lm": 6559,
      "mall": 6560,
      "nominal": 6561,
      "rance": 6562,
      "wana": 6563,
      "▁z": 6564,
      "▁ge": 6565,
      "▁low": 6566,
      "▁urban": 6567,
      "orship": 6568,
      ".org/s": 6569,
      "▁[World": 6570,
      "enj": 6571,
      "erence": 6572,
      "ret": 6573,
      "▁(in": 6574,
      "▁(1):": 6575,
      "▁sim": 6576,
      "[[14": 6577,
      "▁Schwartzberg": 6578,
      "loth": 6579,
      "▁Territory": 6580,
      "rotec": 6581,
      "23.": 6582,
      "emographic": 6583,
      "ager": 6584,
      "50th": 6585,
      "oples": 6586,
      "▁1980": 6587,
      "▁1962": 6588,
      "40px-": 6589,
      "17.": 6590,
      "ecret": 6591,
      "udget": 6592,
      "-5196": 6593,
      "_Comm": 6594,
      "_Mon": 6595,
      "prof": 6596,
      "type": 6597,
      "_Economic": 6598,
      "do-European": 6599,
      "▁[Ludden": 6600,
      "▁addition": 6601,
      "Pages\\_using\\_": 6602,
      "▁2022.\n": 6603,
      "uisine": 6604,
      "▁use": 6605,
      "bi.n": 6606,
      "gypt": 6607,
      "irector": 6608,
      "▁when": 6609,
      "d/d": 6610,
      ".php?": 6611,
      "article/": 6612,
      "ynasty": 6613,
      "olonial": 6614,
      "ncbi.n": 6615,
      "lm.nih": 6616,
      "ncbi.nlm.nih": 6617,
      "&ss": 6618,
      "2-0": 6619,
      "221": 6620,
      "2]](https://ta.wikipedia.org/wiki/இந்தியா#cite_note-": 6621,
      "95": 6622,
      "_ட": 6623,
      "_2007": 6624,
      "_43": 6625,
      "epend": 6626,
      "more": 6627,
      "ren": 6628,
      "uff": 6629,
      "ஆக": 6630,
      "ங்": 6631,
      "டன": 6632,
      "டும்ப": 6633,
      "நகர": 6634,
      "ளை": 6635,
      "ளிய": 6636,
      "ழை": 6637,
      "வியல்": 6638,
      "வும்,": 6639,
      "வர்கள": 6640,
      "▁hist": 6641,
      "iated": 6642,
      "▁\"கு": 6643,
      "aro": 6644,
      "arrow": 6645,
      "ியம்": 6646,
      "ந்த்": 6647,
      "andit": 6648,
      "2002),": 6649,
      "-15": 6650,
      "78.": 6651,
      "▁மர": 6652,
      "▁மொழ": 6653,
      "▁கீ": 6654,
      "▁கட்சி": 6655,
      "▁four": 6656,
      "▁தி": 6657,
      "▁திரு": 6658,
      "ating": 6659,
      "▁2012.": 6660,
      "-0)\n": 6661,
      "▁Ram": 6662,
      "▁அனைத்து": 6663,
      ".[[23": 6664,
      "▁Dictionary": 6665,
      "▁Economy": 6666,
      "டுப்பாட்ட": 6667,
      "22.": 6668,
      "▁religion": 6669,
      "_in_New_Delhi": 6670,
      "AAAAMAAJ": 6671,
      "web.archive.org/web/2009": 6672,
      "*](https://www.": 6673,
      "ability": 6674,
      "▁Law": 6675,
      "▁Liter": 6676,
      "▁முக்கிய": 6677,
      "▁Press](https://ta.wikipedia.org/wiki/": 6678,
      "▁Press\"),": 6679,
      "2010),": 6680,
      "▁தொடர்ச்சி": 6681,
      "▁\"இந்தியக்": 6682,
      "tates_and_": 6683,
      "_page": 6684,
      "_Fund": 6685,
      "▁US": 6686,
      "_அடிப்படையில்": 6687,
      "ureau": 6688,
      "ப்படுகின்ற": 6689,
      "ompan": 6690,
      "▁emerg": 6691,
      "▁நிலையில்": 6692,
      "▁பொதுவாக": 6693,
      "தாகும்.": 6694,
      "▁ஒன்றாக": 6695,
      "▁Buddhist": 6696,
      "data.worldbank.org/": 6697,
      "▁2006](https://ta.wikipedia.org/wiki/இந்தியா#CITEREFMetcalfMetcalf2006),": 6698,
      "மிழ்நாடு": 6699,
      "_languages": 6700,
      "Report.pdf)": 6701,
      "▁Wikidata": 6702,
      "undamental": 6703,
      "osphere": 6704,
      "Tarlo1996-26": 6705,
      "data.worldbank.org/indicator": 6706,
      "-li": 6707,
      "-se": 6708,
      "-ex": 6709,
      "/D": 6710,
      "2]](https://en.wikipedia.org/wiki/India#cite_note-": 6711,
      "4]](https://en.wikipedia.org/wiki/India#cite_note-": 6712,
      "4]](https://en.wikipedia.org/wiki/India#cite_note-FOOTNOTE": 6713,
      "Business": 6714,
      "CH": 6715,
      "IB": 6716,
      "MC": 6717,
      "Me": 6718,
      "MID": 6719,
      "Michell": 6720,
      "Oj": 6721,
      "_21": 6722,
      "_Union": 6723,
      "dic": 6724,
      "eology": 6725,
      "hut": 6726,
      "lé": 6727,
      "ns": 6728,
      "ncient": 6729,
      "pture": 6730,
      "subcontinent": 6731,
      "ues": 6732,
      "▁40": 6733,
      "▁70": 6734,
      "▁[f": 6735,
      "▁[p": 6736,
      "▁[Harle": 6737,
      "ences": 6738,
      "th_BRICS_summit": 6739,
      "aland": 6740,
      "▁prom": 6741,
      "▁caus": 6742,
      "▁14.": 6743,
      "ilk": 6744,
      "chol": 6745,
      "rig": 6746,
      "rime": 6747,
      "rest": 6748,
      "mentin-": 6749,
      "agari": 6750,
      "▁1970": 6751,
      "_Air": 6752,
      "409": 6753,
      "_Pl": 6754,
      "-9677": 6755,
      "oss": 6756,
      "]](https://en.wikipedia.org/wiki/India#cite_note-Combined": 6757,
      "▁forest": 6758,
      "▁Increase": 6759,
      "aves": 6760,
      "aph": 6761,
      "_Data": 6762,
      "Harvard": 6763,
      "▁Press](https://en.wikipedia.org/wiki/C": 6764,
      "exis": 6765,
      "ikhism": 6766,
      "▁language\"),": 6767,
      "times.indiatimes.com/": 6768,
      "▁liter": 6769,
      "ibet": 6770,
      "aceu": 6771,
      "▁languages\")": 6772,
      "1988": 6773,
      "-203": 6774,
      "_at_the": 6775,
      "▁China": 6776,
      "a/a": 6777,
      "ighth": 6778,
      "vanagari": 6779,
      "▁2020.": 6780,
      "▁wide": 6781,
      "Harle1994),": 6782,
      "▁commun": 6783,
      "▁Islands\")": 6784,
      "arliamentary": 6785,
      "4/4": 6786,
      "▁including": 6787,
      "economictimes.indiatimes.com/": 6788,
      "olkata": 6789,
      "owever,": 6790,
      "▁texts": 6791,
      "uiper": 6792,
      "arnatic": 6793,
      "harmaceu": 6794,
      "▁(ed.).": 6795,
      "](https://en.wikipedia.org/wiki/History_of_": 6796,
      "reedom": 6797,
      "ecurity": 6798,
      "mritsar": 6799,
      "Michell2000": 6800,
      "Ojha": 6801,
      "lémentin-": 6802,
      "-967733-7": 6803,
      "lémentin-Ojha": 6804,
      ")\"),": 6805,
      "-a": 6806,
      "/F": 6807,
      "/we": 6808,
      "319": 6809,
      "F)": 6810,
      "Home": 6811,
      "SN": 6812,
      "\\*": 6813,
      "_v": 6814,
      "_इ": 6815,
      "_श": 6816,
      "_he": 6817,
      "_46": 6818,
      "_धर्म": 6819,
      "_ప్రదేశ్": 6820,
      "business/": 6821,
      "bhasha": 6822,
      "eth": 6823,
      "ham": 6824,
      "ji": 6825,
      "multiple": 6826,
      "o-d": 6827,
      "ँची": 6828,
      "अंग्रेज़ी": 6829,
      "उप": 6830,
      "एन": 6831,
      "टना": 6832,
      "तन": 6833,
      "द्वार": 6834,
      "पार": 6835,
      "भग": 6836,
      "मरी": 6837,
      "रि": 6838,
      "स्व": 6839,
      "ेद": 6840,
      "ोला": 6841,
      "ர்த": 6842,
      "லமைப்பு": 6843,
      "ாண்டு": 6844,
      "ுடைய": 6845,
      "ென்": 6846,
      "ం,": 6847,
      "ఉప": 6848,
      "కొ": 6849,
      "కేంద్రపాలిత": 6850,
      "జె": 6851,
      "ఢ్": 6852,
      "ది.": 6853,
      "నాల": 6854,
      "లే": 6855,
      "ళు": 6856,
      "ౌద్ధ": 6857,
      "▁औ": 6858,
      "▁भा": 6859,
      "▁ले": 6860,
      "▁భా": 6861,
      "▁भाग": 6862,
      "win": 6863,
      "▁[य": 6864,
      "▁[ह": 6865,
      "▁[వి": 6866,
      "▁[உலக": 6867,
      "▁\"य": 6868,
      "inema": 6869,
      "arath": 6870,
      "](https://hi.wikipedia.org/wiki/दक्षिण": 6871,
      "](https://hi.wikipedia.org/wiki/तमिल": 6872,
      "▁काल": 6873,
      "▁कॉंग्रेस": 6874,
      "ed\\_im": 6875,
      "्रय": 6876,
      "भारतीय": 6877,
      "ashi": 6878,
      "leg": 6879,
      "lect": 6880,
      "▁सभा": 6881,
      "▁सित": 6882,
      "▁समाज": 6883,
      "ick": 6884,
      "ப்பிய": 6885,
      "▁inter": 6886,
      "▁मई": 6887,
      "▁मन": 6888,
      "▁मह": 6889,
      "▁मिल": 6890,
      "▁मशीन": 6891,
      "▁Cooperation": 6892,
      "▁மைய": 6893,
      "▁colle": 6894,
      "ेंगल": 6895,
      "▁Park": 6896,
      "र्ध": 6897,
      "well": 6898,
      "](https://hi.wikipedia.org/wiki/भारत_के_राज्य": 6899,
      "ilbert": 6900,
      "्तु": 6901,
      "▁வங்கி": 6902,
      "00–": 6903,
      "ాలీ": 6904,
      "▁में,": 6905,
      "▁where": 6906,
      "rib": 6907,
      "▁अभ": 6908,
      "▁जब": 6909,
      "age\\_with\\_": 6910,
      "emon": 6911,
      "caled\\_im": 6912,
      "ర్చ": 6913,
      "_(भारत)": 6914,
      "▁द्वीप": 6915,
      "ண்மை": 6916,
      "upreme": 6917,
      "▁Health": 6918,
      "▁नव": 6919,
      "▁reg": 6920,
      "_in_the": 6921,
      "_से": 6922,
      "_साम": 6923,
      "\"](https://web.archive.org/web/20": 6924,
      "matic": 6925,
      "▁व्या": 6926,
      "▁growth": 6927,
      "குதி": 6928,
      "▁Organization": 6929,
      "▁Le": 6930,
      "▁गई": 6931,
      "ड़िया": 6932,
      "▁शहर": 6933,
      "▁[मध्य": 6934,
      "ages\n": 6935,
      "▁மு.": 6936,
      "म्भ": 6937,
      "_के_अन": 6938,
      "▁Island": 6939,
      "संधान": 6940,
      "त्तरी": 6941,
      "–సా.శ.18": 6942,
      "▁అత్య": 6943,
      "ம்பு": 6944,
      "▁लिये": 6945,
      "▁यूनिवर्सिट": 6946,
      "▁உள்ளது.[[": 6947,
      "]](https://hi.wikipedia.org/wiki/भारत#cite_note-pib": 6948,
      "ாளர்": 6949,
      "▁ఆధ": 6950,
      "మాఖ్య": 6951,
      "వాణా": 6952,
      "ంటి": 6953,
      "▁சமூக": 6954,
      "68–": 6955,
      "▁जनजाति": 6956,
      "▁राजधान": 6957,
      "▁2007\n": 6958,
      "▁దేశం": 6959,
      "த்தியில்": 6960,
      "रुणा": 6961,
      "డ్డ": 6962,
      "▁జనాభా": 6963,
      "▁2018](https://ta.wikipedia.org/wiki/இந்தியா#CITEREF": 6964,
      "▁அரசா": 6965,
      "ச்சகம்": 6966,
      "దక్షిణాసియా": 6967,
      "▁\"அமெரிக்க": 6968,
      "▁change": 6969,
      "▁గల": 6970,
      "](https://ta.wikipedia.org/wiki/அமெரிக்க": 6971,
      "▁భారతదేశంలో": 6972,
      "ంగ్లీ": 6973,
      "rishna": 6974,
      "యునై": 6975,
      "ష్ణ": 6976,
      "\\_scaled\\_im": 6977,
      "_చరిత్ర?action=edit&redlink=1": 6978,
      "ोर्ट": 6979,
      "▁[doi](https://ta.wikipedia.org/wiki/": 6980,
      "table": 6981,
      "▁రాష్ట్రాలు,": 6982,
      "ataraj": 6983,
      "▁साम्राज्य\")": 6984,
      "_మతము": 6985,
      "▁இதில்": 6986,
      "धुनिक": 6987,
      "▁increased": 6988,
      "\\_image\\_with\\_": 6989,
      "▁మొద": 6990,
      "ूर्ण": 6991,
      "▁(2014).": 6992,
      "adhya": 6993,
      "violence": 6994,
      "▁உணவு": 6995,
      "_देशों_की_सूची": 6996,
      "ताजमह": 6997,
      "▁చెయ్యబడింది.": 6998,
      "क्षरता": 6999,
      "auto\\_scaled\\_im": 7000,
      "▁स्थाप": 7001,
      "business-": 7002,
      "▁[पाकिस्तान](https://hi.wikipedia.org/wiki/पाकिस्तान": 7003,
      "_Commission": 7004,
      "_அடிப்படையில்_நாடு": 7005,
      "multiple\\_image\\_with\\_": 7006,
      "ेंगलुरु": 7007,
      "_साम्राज्य": 7008,
      "_के_अनुसार": 7009,
      "▁यूनिवर्सिटी": 7010,
      "యునైటెడ్": 7011,
      "auto\\_scaled\\_images\n": 7012,
      "multiple\\_image\\_with\\_auto\\_scaled\\_images\n": 7013,
      "-H": 7014,
      "0-0)": 7015,
      "410": 7016,
      "US": 7017,
      "_45": 7018,
      "hl": 7019,
      "law": 7020,
      "vil": 7021,
      "▁times": 7022,
      "alak": 7023,
      "alys": 7024,
      "itor": 7025,
      "ately": 7026,
      "urs": 7027,
      "▁Trade": 7028,
      "▁direct": 7029,
      "▁different": 7030,
      "ayana": 7031,
      "▁2000": 7032,
      "▁last": 7033,
      "ody": 7034,
      "▁[*H": 7035,
      "osa": 7036,
      "▁London": 7037,
      "_Times": 7038,
      "ummary": 7039,
      "rchitecture": 7040,
      "arden": 7041,
      "333": 7042,
      "iance": 7043,
      "▁\"Government": 7044,
      "▁2019,": 7045,
      "▁[*An": 7046,
      "Craven1997),": 7047,
      "▁Short": 7048,
      "▁People": 7049,
      "7,26": 7050,
      "_News": 7051,
      "▁estimate": 7052,
      "alakrishnan": 7053,
      "\"](http://": 7054,
      "2-8": 7055,
      "6]](https://en.wikipedia.org/wiki/India#cite_note-FOOTNOTE": 7056,
      "9-6": 7057,
      "Ch": 7058,
      "IF": 7059,
      "M50th": 7060,
      "NCL": 7061,
      "Sanskrit": 7062,
      "UK": 7063,
      "_28": 7064,
      "_val": 7065,
      "equality": 7066,
      "m2": 7067,
      "search": 7068,
      "uin": 7069,
      "ண்கள": 7070,
      "லில்": 7071,
      "லும்": 7072,
      "ளவில்": 7073,
      "ளஞ்சிய": 7074,
      "வல": 7075,
      "வானது": 7076,
      "வர்கள்": 7077,
      "ாதுகாப்பு": 7078,
      "ிக்கா": 7079,
      "ீடு": 7080,
      "–120": 7081,
      "▁80": 7082,
      "oro": 7083,
      "](Template:": 7084,
      "▁[Y": 7085,
      "▁[கு": 7086,
      "▁\"உலக": 7087,
      "anat": 7088,
      "thi": 7089,
      "eri": 7090,
      "arayan": 7091,
      "report": 7092,
      "ியான": 7093,
      "](https://ta.wikipedia.org/wiki/உ": 7094,
      "omo": 7095,
      "இந்தி": 7096,
      "▁(J": 7097,
      "ital": 7098,
      "▁பூ": 7099,
      "▁பேர": 7100,
      "▁India](https://en.wikipedia.org/wiki/C": 7101,
      "](https://en.wikipedia.org/wiki/Indian": 7102,
      "trial": 7103,
      "ingap": 7104,
      "ation,": 7105,
      "ads": 7106,
      "adwe": 7107,
      "adras": 7108,
      "\\_containing\\_": 7109,
      "urk": 7110,
      "▁தனி": 7111,
      "▁தேர்தல்": 7112,
      "▁Muslim": 7113,
      "▁இன": 7114,
      "238": 7115,
      "results": 7116,
      "style": 7117,
      "▁Br": 7118,
      "igarh": 7119,
      "irth": 7120,
      "▁*A": 7121,
      "24.": 7122,
      "▁சோ": 7123,
      "agen": 7124,
      "ாட்டின்": 7125,
      "▁உறு": 7126,
      "-345": 7127,
      "-45": 7128,
      "▁led": 7129,
      "▁Nuclear": 7130,
      "▁rel": 7131,
      "_School": 7132,
      "சுக": 7133,
      "_Per": 7134,
      "▁என": 7135,
      "▁W.": 7136,
      "க்குக்": 7137,
      "▁[↑](https://en.wikipedia.org/wiki/India#cite_ref-4": 7138,
      "ains": 7139,
      "▁\"Mughal": 7140,
      "a_Empire": 7141,
      "%20A": 7142,
      "](https://en.wikipedia.org/wiki/Mugh": 7143,
      "issions": 7144,
      "neworld": 7145,
      "](https://en.wikipedia.org/wiki/British": 7146,
      "▁\"Template:": 7147,
      "▁[Re": 7148,
      "லைக்களஞ்சிய": 7149,
      "▁Urdu": 7150,
      "handigarh": 7151,
      ".jpg/250px-S": 7152,
      "▁2007](https://en.wikipedia.org/wiki/India#CITEREF": 7153,
      "PPP": 7154,
      "national-language": 7155,
      "ynth": 7156,
      "▁மொழி\")": 7157,
      "▁நீதி": 7158,
      "▁subcontinent\")": 7159,
      "▁நாடுகள்": 7160,
      "▁\"Official": 7161,
      "▁தொடங்க": 7162,
      "-language\\_s": 7163,
      "▁These": 7164,
      "ிரித்தானிக்கா": 7165,
      "ortal:": 7166,
      "▁ed.),": 7167,
      "▁கொண்டிருந்த": 7168,
      "ources\\_(": 7169,
      "▁பிறகு": 7170,
      "▁இலக்கிய": 7171,
      "nergy": 7172,
      "Wikipedia:": 7173,
      "janta": 7174,
      "▁Publications": 7175,
      "](https://en.wikipedia.org/wiki/South_Asian_": 7176,
      "Wolpert2003": 7177,
      "culpture": 7178,
      "▁2018](https://en.wikipedia.org/wiki/India#CITEREFDyson2018),": 7179,
      "னாமி": 7180,
      "akshadwe": 7181,
      "achine": 7182,
      "hattis": 7183,
      "▁Studies": 7184,
      "nclm.nic.in/shared/linkimages/NCL": 7185,
      "ouncil": 7186,
      "entral_In": 7187,
      "M50thReport.pdf)": 7188,
      "_value": 7189,
      "ingapore": 7190,
      "](https://en.wikipedia.org/wiki/Mughal_": 7191,
      "-language\\_sources\\_(": 7192,
      "akshadweep": 7193,
      "nclm.nic.in/shared/linkimages/NCLM50thReport.pdf)": 7194,
      "-gen": 7195,
      "/M": 7196,
      "0/0": 7197,
      "2-7": 7198,
      "7C": 7199,
      "8%": 7200,
      ";[[": 7201,
      "BBC": 7202,
      "Pal": 7203,
      "_7": 7204,
      "_h": 7205,
      "rup": 7206,
      "ting": 7207,
      "uters": 7208,
      "▁—": 7209,
      "▁7.": 7210,
      "orne": 7211,
      "enous": 7212,
      "▁\"World": 7213,
      "-18": 7214,
      "▁prac": 7215,
      "▁political": 7216,
      "▁Ste": 7217,
      "▁cre": 7218,
      "loped": 7219,
      "▁2015.": 7220,
      "vert": 7221,
      "una": 7222,
      "raw": 7223,
      "stani": 7224,
      ".jpe": 7225,
      "▁By": 7226,
      "igenous": 7227,
      "▁Day": 7228,
      "emi": 7229,
      "beral": 7230,
      "▁Emer": 7231,
      "hak": 7232,
      "▁east": 7233,
      "opal": 7234,
      "29)": 7235,
      "▁though": 7236,
      "▁Report": 7237,
      "▁On": 7238,
      "▁L.": 7239,
      "ghts": 7240,
      "bove": 7241,
      "alled": 7242,
      "_Nations": 7243,
      "akistani": 7244,
      "_population": 7245,
      "\"](https://web.archive.org/web/20140": 7246,
      "▁known": 7247,
      "ksai": 7248,
      "▁coast": 7249,
      "hola": 7250,
      "tiger": 7251,
      ".svg/40px-": 7252,
      "default": 7253,
      "▁Conservation": 7254,
      "igration": 7255,
      "ublishers": 7256,
      "hutan": 7257,
      "-w": 7258,
      "-de": 7259,
      "528": 7260,
      "6]](https://ta.wikipedia.org/wiki/இந்தியா#cite_note-FOOTNOTE": 7261,
      "748": 7262,
      "EN": 7263,
      "Garg": 7264,
      "L.": 7265,
      "_న": 7266,
      "_con": 7267,
      "_16": 7268,
      "_राज्य": 7269,
      "_एशिया": 7270,
      "ax": 7271,
      "aid": 7272,
      "ek": 7273,
      "ethnologue": 7274,
      "kb": 7275,
      "lar": 7276,
      "nuclear": 7277,
      "voy": 7278,
      "went": 7279,
      "ंतर": 7280,
      "ईल": 7281,
      "ख्य": 7282,
      "घर": 7283,
      "चें": 7284,
      "तम": 7285,
      "तुल": 7286,
      "थियार": 7287,
      "फा": 7288,
      "बा": 7289,
      "मर": 7290,
      "मार": 7291,
      "वेश": 7292,
      "वैद": 7293,
      "शन": 7294,
      "िबंध": 7295,
      "ृष": 7296,
      "ृष्ण": 7297,
      "ोट": 7298,
      "्लेट": 7299,
      "டக்கலை": 7300,
      "மண": 7301,
      "யி": 7302,
      "யில்": 7303,
      "ல்த": 7304,
      "ழல்": 7305,
      "வீன": 7306,
      "ஸ்ட்": 7307,
      "ின": 7308,
      "ఖండ": 7309,
      "గం": 7310,
      "టిక": 7311,
      "డే": 7312,
      "ద్య": 7313,
      "మార్": 7314,
      "మాలయ": 7315,
      "లలో": 7316,
      "లకు": 7317,
      "ళ్": 7318,
      "వ](https://te.wikipedia.org/wiki/": 7319,
      "ానికి": 7320,
      "ాళు": 7321,
      "ీర్": 7322,
      "▁,": 7323,
      "▁:": 7324,
      "▁५": 7325,
      "▁భ": 7326,
      "▁web": 7327,
      "▁ला": 7328,
      "▁యు": 7329,
      "▁kingdom": 7330,
      "tten": 7331,
      "](https://d": 7332,
      "▁[प्र": 7333,
      "▁[तमिल": 7334,
      "▁[गुजरात": 7335,
      "▁\"ड": 7336,
      "▁\"ह": 7337,
      "▁\"వి": 7338,
      "ino-": 7339,
      "info": 7340,
      "anch": 7341,
      "20.": 7342,
      "tile": 7343,
      "hiv": 7344,
      "reater": 7345,
      "cid": 7346,
      "ारो": 7347,
      "ारम्भ": 7348,
      "](https://hi.wikipedia.org/wiki/ग": 7349,
      "](https://hi.wikipedia.org/wiki/द": 7350,
      "▁कम": 7351,
      "▁किन": 7352,
      "](https://ta.wikipedia.org/wiki/கு": 7353,
      "्रह": 7354,
      "andy": 7355,
      "▁(2004": 7356,
      "▁(2006),": 7357,
      "▁(2nd": 7358,
      "▁सह": 7359,
      "▁स्तर": 7360,
      "▁सभ्यता": 7361,
      "ப்பாக": 7362,
      "ப்பானது": 7363,
      "ட்டிய": 7364,
      "▁Asher": 7365,
      "\\_क": 7366,
      "\\_country": 7367,
      "ush": 7368,
      "த்தா": 7369,
      "▁fol": 7370,
      "▁can": 7371,
      "ेंस": 7372,
      "▁திரைப்படத்துறை": 7373,
      "र्ट": 7374,
      "्त्र": 7375,
      "▁வங்காள": 7376,
      "ాలో": 7377,
      "▁அட": 7378,
      "▁அரு": 7379,
      "▁அவை": 7380,
      "▁அணு": 7381,
      "ratic": 7382,
      "▁अमेर": 7383,
      "▁अलग": 7384,
      "▁अर्थव्यवस्था": 7385,
      "▁நேர": 7386,
      "స్వ": 7387,
      "స్లా": 7388,
      "वियत": 7389,
      "▁పాల": 7390,
      "240": 7391,
      "▁जिन": 7392,
      "ाले": 7393,
      "ालैंड": 7394,
      "▁சந்தை": 7395,
      "ாகரி": 7396,
      "▁देव": 7397,
      "▁दोन": 7398,
      "న్\")": 7399,
      "न्ध": 7400,
      "▁ஆயு": 7401,
      "▁Em": 7402,
      "டுத்து": 7403,
      "▁बंगाल": 7404,
      "▁बड़े": 7405,
      "ண்டல": 7406,
      "லைவன": 7407,
      "▁प्रधानमंत्री": 7408,
      "भाजन": 7409,
      "▁सेवा": 7410,
      "▁काम": 7411,
      "சுலி": 7412,
      "▁Food": 7413,
      "களானவை": 7414,
      "▁కార": 7415,
      "▁కలి": 7416,
      "▁व्यवस्था": 7417,
      "ples": 7418,
      "tempor": 7419,
      "ాలు?action=edit&redlink=1": 7420,
      "రిహ": 7421,
      "రికత": 7422,
      "క్నాల": 7423,
      "](https://ta.wikipedia.org/wiki/பு": 7424,
      "▁आक": 7425,
      "▁आद": 7426,
      "ంది.\n": 7427,
      "నిమా": 7428,
      "▁Languages": 7429,
      "-526": 7430,
      "_and_T": 7431,
      "▁సంగీతం": 7432,
      "▁\"பு": 7433,
      "▁परि": 7434,
      "-7mar": 7435,
      "ndhra": 7436,
      "▁शा": 7437,
      "poration": 7438,
      "▁संस्थान": 7439,
      "▁చి": 7440,
      "▁ass": 7441,
      "ियन": 7442,
      "ी](https://hi.wikipedia.org/wiki/म": 7443,
      "संबर": 7444,
      "सां": 7445,
      "%2C5": 7446,
      "%2C_S": 7447,
      "त्ति": 7448,
      "▁रक्षा": 7449,
      "ங்களும்": 7450,
      "ులు\"),": 7451,
      "–సా.శ.13": 7452,
      "▁అయ": 7453,
      "▁ప్రధాన": 7454,
      "▁now": 7455,
      "▁Vol": 7456,
      "जापान": 7457,
      "லால்": 7458,
      "▁\"मध्य": 7459,
      "ிருத": 7460,
      "▁உள்ளன.": 7461,
      "-symbols": 7462,
      "]](https://hi.wikipedia.org/wiki/भारत#cite_note-langoff-1": 7463,
      "हाँ": 7464,
      "_GDP": 7465,
      "_Gandhi": 7466,
      "▁\"En": 7467,
      "ोली": 7468,
      "ప్రదాయ": 7469,
      "ప్రత్యేక": 7470,
      "ద్వీ": 7471,
      "ப்_பொது": 7472,
      "▁(PDF),": 7473,
      "▁ఉప": 7474,
      "](https://hi.wikipedia.org/wiki/मध्य": 7475,
      "▁போன்ற": 7476,
      "▁[பு": 7477,
      "▁[Dikshit": 7478,
      "▁రె": 7479,
      "ற்போ": 7480,
      "న్నడ": 7481,
      "द्यालय": 7482,
      "ంటు": 7483,
      "684": 7484,
      "AsherTalbot2006),": 7485,
      "2005),": 7486,
      "duct": 7487,
      "120]](https://hi.wikipedia.org/wiki/भारत#cite_note-langoff-1": 7488,
      "▁செய்ய": 7489,
      "▁దేశంలో": 7490,
      "गुप्त": 7491,
      "ாடாளுமன்ற": 7492,
      "alaysia": 7493,
      "▁காங்கிரசு": 7494,
      "national-symbols": 7495,
      "](https://books.google.com/books?id=ZvaGuaJIJgoC&pg=PA": 7496,
      "](https://books.google.com/books?id=kZVuDwAAQBAJ&pg=PA": 7497,
      "కాశ్మీ": 7498,
      "_ஆறு": 7499,
      "▁2009](https://hi.wikipedia.org/wiki/भारत#CITEREF": 7500,
      "](https://hi.wikipedia.org/wiki/पंजाब": 7501,
      "](https://hi.wikipedia.org/wiki/पश्चिम": 7502,
      "ంధు": 7503,
      "వర్గం:Harv": 7504,
      "ों_की_सूची?action=edit&redlink=1": 7505,
      "▁निभा": 7506,
      "▁CITEREFStein1998": 7507,
      "▁CITEREFSingh2009": 7508,
      "▁agriculture": 7509,
      "ights": 7510,
      "](https://hi.wikipedia.org/wiki/भारत#CITEREFStein1998),": 7511,
      "ద్ధం": 7512,
      "ద్ధి": 7513,
      "ాల్దీవ": 7514,
      "చ్చే": 7515,
      "దక్షిణ_": 7516,
      "▁across": 7517,
      ":EditPage/మూస:": 7518,
      "▁இடையில்": 7519,
      "▁थे": 7520,
      "▁पाकिस्तान": 7521,
      "▁కాంగ్రె": 7522,
      "oyal": 7523,
      "▁उपमहाद्वीप": 7524,
      "कालीन": 7525,
      "▁मंदिर\")": 7526,
      "టెక్నాల": 7527,
      "](https://hi.wikipedia.org/wiki/भारत#cite_ref-pib": 7528,
      "](https://hi.wikipedia.org/wiki/भारत#cite_ref-langoff": 7529,
      "नागालैंड": 7530,
      "▁ప్రాంతాలు": 7531,
      "DikshitSchwartzberg2023),": 7532,
      "धीरे": 7533,
      "హిమాలయ": 7534,
      "▁(eds.),": 7535,
      "emocratic": 7536,
      "▁1998](https://ta.wikipedia.org/wiki/இந்தியா#CITEREF": 7537,
      "▁1998](https://hi.wikipedia.org/wiki/भारत#CITEREFStein1998),": 7538,
      "▁கடற்க": 7539,
      "டப்பட்டது.": 7540,
      "▁Environmental": 7541,
      "Ludden2014": 7542,
      "View": 7543,
      "रोहर": 7544,
      "▁वर्षों": 7545,
      "▁లే": 7546,
      "త్తరా": 7547,
      "నాగరికత": 7548,
      "▁ஆற்றல்": 7549,
      "▁வீத": 7550,
      "▁देख": 7551,
      "క్కువ": 7552,
      "▁நூற்றாண்ட": 7553,
      "▁நூற்றாண்டு": 7554,
      "-22)": 7555,
      "Provisional_Population_Totals_Paper_1_of_2011_India16": 7556,
      "வார்ப்புரு:Navbox": 7557,
      "▁rock": 7558,
      "క్‌సభ": 7559,
      "▁శాస్త్ర": 7560,
      "▁सिनेमा\"),": 7561,
      "▁Before": 7562,
      "ांति": 7563,
      "ांधी": 7564,
      "▁दृश्य": 7565,
      "ேபாள": 7566,
      "▁majority": 7567,
      "ెలుగు": 7568,
      "▁होती": 7569,
      "▁भूमिका": 7570,
      "▁दिसंबर": 7571,
      "▁వచ్చింది.": 7572,
      "प्राचीन": 7573,
      "uthority": 7574,
      "_ప్రాంత": 7575,
      "▁./பகுப்பு:Pages\\_using\\_multiple\\_image\\_with\\_auto\\_scaled\\_images\n": 7576,
      "हित्य": 7577,
      "ेघालय": 7578,
      "▁\"पाकिस्तान\")": 7579,
      "-0-19-882905-8": 7580,
      "▁नेतृत्व": 7581,
      "Home_Affairs": 7582,
      "ర్చ:": 7583,
      "रुणाचल": 7584,
      "ethnologue.com/": 7585,
      "चेंज": 7586,
      "वैदिक": 7587,
      "िबंधीय": 7588,
      "ాళుక్య": 7589,
      "infobox": 7590,
      "▁Asher,": 7591,
      "-7mar2011": 7592,
      "_GDP_(": 7593,
      "ప్రత్యేక:EditPage/మూస:": 7594,
      "120]](https://hi.wikipedia.org/wiki/भारत#cite_note-langoff-128)": 7595,
      "▁2009](https://hi.wikipedia.org/wiki/भारत#CITEREFSingh2009),": 7596,
      "టెక్నాలజీ": 7597,
      "](https://hi.wikipedia.org/wiki/भारत#cite_ref-langoff_128": 7598,
      "*](http://": 7599,
      "/).": 7600,
      "41": 7601,
      "5)\n": 7602,
      "5]](https://en.wikipedia.org/wiki/India#cite_note-FOOTNOTE": 7603,
      "7]](https://en.wikipedia.org/wiki/India#cite_note-FOOTNOTE": 7604,
      "8–": 7605,
      "Ali": 7606,
      "Aitchison": 7607,
      "Dg": 7608,
      "EB": 7609,
      "Economic": 7610,
      "Pakistan": 7611,
      "Urdu": 7612,
      "Xavi": 7613,
      "_industry": 7614,
      "baki": 7615,
      "cropped": 7616,
      "khand": 7617,
      "ocal": 7618,
      "spec": 7619,
      "tle": 7620,
      "yth": 7621,
      "▁eng": 7622,
      "▁qu": 7623,
      "ora": 7624,
      "ores": 7625,
      "▁\"19": 7626,
      "Indian_": 7627,
      "him": 7628,
      "](https://en.wikipedia.org/wiki/World": 7629,
      "tam": 7630,
      "itar": 7631,
      "ich": 7632,
      "ices": 7633,
      "▁India.[[": 7634,
      "#cite_ref-10": 7635,
      "#cite_note-10": 7636,
      "789": 7637,
      "acher": 7638,
      "uss": 7639,
      "▁Singh": 7640,
      "▁Social": 7641,
      ").jpg": 7642,
      "▁cour": 7643,
      "lock": 7644,
      "umeration": 7645,
      "etwork": 7646,
      "iland": 7647,
      "ango": 7648,
      "angam": 7649,
      "▁Me": 7650,
      "oln": 7651,
      "▁work": 7652,
      "25.": 7653,
      "2649": 7654,
      "▁Dyson": 7655,
      "287,26": 7656,
      "-39": 7657,
      "hai": 7658,
      "_in_T": 7659,
      "406]](https://en.wikipedia.org/wiki/India#cite_note-": 7660,
      "harkhand": 7661,
      "place": 7662,
      "]](https://en.wikipedia.org/wiki/India#cite_note-4": 7663,
      "eph": 7664,
      "&pg=PT": 7665,
      "▁\"Cambridge": 7666,
      "ourbaki": 7667,
      "▁[Cambridge": 7668,
      "ajya": 7669,
      "▁become": 7670,
      "48)": 7671,
      "39-4": 7672,
      "▁2011,": 7673,
      "▁[↑](https://en.wikipedia.org/wiki/India#cite_ref-FOOTNOTEStein2010": 7674,
      "_Ram": 7675,
      "_River": 7676,
      "_Broadcasting": 7677,
      "vention": 7678,
      "▁contin": 7679,
      "angetic": 7680,
      "\"](https://web.archive.org/web/20150": 7681,
      "ultures": 7682,
      "▁[New": 7683,
      "▁vill": 7684,
      "amese": 7685,
      "ambridge_University_Press": 7686,
      "erves": 7687,
      "ervice": 7688,
      "▁sever": 7689,
      "Articles\\_containing\\_": 7690,
      "unjabi": 7691,
      "▁Talbot,": 7692,
      "▁Programme": 7693,
      "▁about": 7694,
      "grave": 7695,
      "230-345": 7696,
      "amilies": 7697,
      "telligence_Agency": 7698,
      "▁[India](https://en.wikipedia.org/wiki/India": 7699,
      "cheduled": 7700,
      "▁3,287,26": 7701,
      "](Special:BookSources/978-81": 7702,
      "▁\"Special:BookSources/978-81": 7703,
      "vatsyayan-lord-4": 7704,
      "vatsyayan-lord_43": 7705,
      "▁1994](https://en.wikipedia.org/wiki/India#CITEREF": 7706,
      "forcement": 7707,
      "b/b": 7708,
      "do-Pakistani": 7709,
      "rakash": 7710,
      "hmedabad": 7711,
      "-107-02649": 7712,
      "alayalam": 7713,
      "▁Press](https://en.wikipedia.org/wiki/Cambridge_University_Press": 7714,
      "entral_Intelligence_Agency": 7715,
      "AliAitchison": 7716,
      "▁Dyson,": 7717,
      "406]](https://en.wikipedia.org/wiki/India#cite_note-vatsyayan-lord-4": 7718,
      "230-34549-2": 7719,
      "-107-02649-0": 7720,
      "AliAitchison2005": 7721,
      "-R": 7722,
      "-k": 7723,
      "-th": 7724,
      "/india/": 7725,
      "/hindi": 7726,
      "1)\n": 7727,
      "1%20": 7728,
      "7]](https://ta.wikipedia.org/wiki/இந்தியா#cite_note-FOOTNOTE": 7729,
      "9]](https://ta.wikipedia.org/wiki/இந்தியா#cite_note-": 7730,
      "Co": 7731,
      "Karanth": 7732,
      "_8": 7733,
      "_2009": 7734,
      "_வி": 7735,
      "ful": 7736,
      "ppe": 7737,
      "rince": 7738,
      "whi": 7739,
      "worth": 7740,
      "ஒடி": 7741,
      "சே": 7742,
      "தலை": 7743,
      "ரம்": 7744,
      "ரூபாய்": 7745,
      "ளம்": 7746,
      "ீக்கிய": 7747,
      "ீதிய": 7748,
      "–5": 7749,
      "▁rit": 7750,
      "▁சிற": 7751,
      "orm": 7752,
      "▁[கா": 7753,
      "edi": 7754,
      "ன்ஸ்": 7755,
      "▁பள்ள": 7756,
      "nold": 7757,
      "ல்வ": 7758,
      "truction": 7759,
      "-138": 7760,
      "ing,": 7761,
      "க்கான": 7762,
      "ations/": 7763,
      "த்தக்க": 7764,
      "▁கி": 7765,
      "▁கண்ட": 7766,
      "▁fig": 7767,
      "▁தீ": 7768,
      "▁bu": 7769,
      "ரும்": 7770,
      "angered": 7771,
      "ில்லிய": 7772,
      "21.": 7773,
      "▁இற": 7774,
      "▁இவ்": 7775,
      "▁அன்று": 7776,
      "▁அமெரிக்க": 7777,
      "2542": 7778,
      "1991": 7779,
      "-38": 7780,
      "▁ஆனால்": 7781,
      "▁Home": 7782,
      "▁Hindus": 7783,
      "▁Nicobar": 7784,
      "▁third": 7785,
      "ச்_ச": 7786,
      "s/default": 7787,
      "_Co-operation": 7788,
      "▁around": 7789,
      "2011religion": 7790,
      "▁[Central": 7791,
      "▁முக": 7792,
      "▁குடும்ப": 7793,
      "enguin": 7794,
      "▁[Robb": 7795,
      "_மற்றும்": 7796,
      "▁2010](https://ta.wikipedia.org/wiki/இந்தியா#CITEREF": 7797,
      "illion-": 7798,
      "▁நிர்": 7799,
      "/countries/": 7800,
      "do-G": 7801,
      "ுள்ளது.[[": 7802,
      "need": 7803,
      "▁காண": 7804,
      "ற்றும": 7805,
      "▁2009](https://ta.wikipedia.org/wiki/இந்தியா#CITEREF": 7806,
      "▁தொக": 7807,
      "ports/": 7808,
      "▁தொடக்க": 7809,
      "athematics": 7810,
      "ரோப்பிய": 7811,
      "▁Art": 7812,
      "▁இரண்டு": 7813,
      "த்_தேர்தல்": 7814,
      "▁[Archived](https://web.archive.org/web/20210": 7815,
      "rganisation_for": 7816,
      "ustralian": 7817,
      "▁species": 7818,
      "▁ரூபாய்": 7819,
      "▁ரீதிய": 7820,
      "text": 7821,
      "லுவல்": 7822,
      "▁capita": 7823,
      "ங்கிலம்": 7824,
      "▁occup": 7825,
      "ணையர்": 7826,
      ".co.uk/": 7827,
      "vidence": 7828,
      "elangana": 7829,
      "▁Books": 7830,
      "▁appro": 7831,
      "Census2011religion": 7832,
      "▁பெரும்பாலான": 7833,
      "▁பயன்படுத்த": 7834,
      "\\_articles\\_with\\_": 7835,
      "திவாளர்": 7836,
      "lothing": 7837,
      "_Economic_Co-operation": 7838,
      "data.worldbank.org/indicator/S": 7839,
      "-language\\_sources\\_(en": 7840,
      "ல்தான": 7841,
      "2542-5196": 7842,
      "s/default/files/": 7843,
      "rganisation_for_Economic_Co-operation": 7844,
      "rganisation_for_Economic_Co-operation_and_Development": 7845,
      "-70": 7846,
      ".edu": 7847,
      "314": 7848,
      "623": 7849,
      ":\\_": 7850,
      "AQAAQBAJ&pg=PA": 7851,
      "_U": 7852,
      "_39": 7853,
      "aut": 7854,
      "hā": 7855,
      "mon": 7856,
      "tool": 7857,
      "u,": 7858,
      "vision": 7859,
      "wAAQBAJ&pg=PA": 7860,
      "▁Z": 7861,
      "▁trib": 7862,
      "](https://www": 7863,
      "though": 7864,
      "ties/": 7865,
      "ardian": 7866,
      "es-": 7867,
      "of\\_": 7868,
      "▁(19": 7869,
      "▁sq": 7870,
      "▁st": 7871,
      "▁poll": 7872,
      "▁Century": 7873,
      "\\_of\\_": 7874,
      "aten": 7875,
      "urd": 7876,
      "uries": 7877,
      "ily": 7878,
      "216": 7879,
      "▁Ro": 7880,
      "rowing": 7881,
      "▁Bharat": 7882,
      "▁Desert": 7883,
      "▁2007.": 7884,
      "▁Ganges": 7885,
      "ount": 7886,
      "27.": 7887,
      "ecu": 7888,
      "*](https://archive.org/details/": 7889,
      "▁house": 7890,
      "abour": 7891,
      "▁West": 7892,
      "▁[Ar": 7893,
      "_Games": 7894,
      "-market": 7895,
      "onstitution_of_India": 7896,
      "1977": 7897,
      "_des": 7898,
      "▁(2017).": 7899,
      "▁adop": 7900,
      "▁plain": 7901,
      "▁centuries": 7902,
      "▁km2": 7903,
      "cms)": 7904,
      "formance": 7905,
      ".com/news/world": 7906,
      "▁upper": 7907,
      "▁(2018).": 7908,
      "▁military": 7909,
      "_number": 7910,
      "▁Minorities,": 7911,
      "▁mi)": 7912,
      "▁independence": 7913,
      "nominal)": 7914,
      "alysis": 7915,
      "&#": 7916,
      ".పూ.": 7917,
      "/e": 7918,
      "0&s": 7919,
      "5]](https://ta.wikipedia.org/wiki/இந்தியா#cite_note-": 7920,
      "61": 7921,
      "8+": 7922,
      "96": 7923,
      ":IN": 7924,
      "=\"": 7925,
      "DR": 7926,
      "E﻿": 7927,
      "John": 7928,
      "Kathak": 7929,
      "RA": 7930,
      "Web": 7931,
      "_2004": 7932,
      "_உலக": 7933,
      "aos": 7934,
      "cia": 7935,
      "caste": 7936,
      "fun": 7937,
      "gi": 7938,
      "hdr": 7939,
      "lid": 7940,
      "mand": 7941,
      "nus": 7942,
      "rune": 7943,
      "rban": 7944,
      "अरब": 7945,
      "इन": 7946,
      "ईद": 7947,
      "ऍथ": 7948,
      "ऑक्सफोर्ड": 7949,
      "कणी": 7950,
      "ख़": 7951,
      "गध": 7952,
      "जल": 7953,
      "जपा": 7954,
      "जपुरी": 7955,
      "जिस्ट": 7956,
      "ताल": 7957,
      "थम": 7958,
      "थल": 7959,
      "दल": 7960,
      "दान": 7961,
      "नोल": 7962,
      "न्तर": 7963,
      "फ्रां": 7964,
      "बी": 7965,
      "बू": 7966,
      "बार": 7967,
      "मत": 7968,
      "मृत": 7969,
      "यपुर": 7970,
      "रस": 7971,
      "ल्ल": 7972,
      "वत": 7973,
      "शत": 7974,
      "शोक": 7975,
      "हम": 7976,
      "हें": 7977,
      "ाक": 7978,
      "ुरा": 7979,
      "ुम्ब": 7980,
      "ूबर": 7981,
      "ेक": 7982,
      "ॉग": 7983,
      "५७": 7984,
      "கவல்": 7985,
      "ஜன": 7986,
      "பதி": 7987,
      "லின்": 7988,
      "வண்": 7989,
      "ஸ்ட": 7990,
      "ంతం": 7991,
      "ఆగ": 7992,
      "కళ": 7993,
      "ఖండ్": 7994,
      "గ్": 7995,
      "గిన": 7996,
      "గఢ్": 7997,
      "జో": 7998,
      "ట్ర": 7999,
      "తెలుగు": 8000,
      "ద్రా": 8001,
      "పద": 8002,
      "భి": 8003,
      "యో": 8004,
      "లక్ష": 8005,
      "వర": 8006,
      "శో": 8007,
      "షా": 8008,
      "హు": 8009,
      "హార్": 8010,
      "హాయ": 8011,
      "ాష్ట్ర": 8012,
      "ీక": 8013,
      "ీహార్": 8014,
      "ుల": 8015,
      "ుల్": 8016,
      "ోల్": 8017,
      "ోత్స": 8018,
      "ౌర్య": 8019,
      "▁`": 8020,
      "▁78": 8021,
      "▁रा": 8022,
      "▁ve": 8023,
      "▁ना": 8024,
      "orig": 8025,
      "](https://catalog": 8026,
      "▁[श": 8027,
      "▁[హ": 8028,
      "▁[राज्य": 8029,
      "▁\"హ": 8030,
      "▁\"साँच": 8031,
      "▁\"साँचा:": 8032,
      "▁\"ఢిల్లీ": 8033,
      "inan": 8034,
      "an-": 8035,
      "til": 8036,
      "ala": 8037,
      "alit": 8038,
      "ofker": 8039,
      "ந்தியா": 8040,
      "](https://hi.wikipedia.org/wiki/हिन्द": 8041,
      "](https://hi.wikipedia.org/wiki/साँच": 8042,
      "](https://hi.wikipedia.org/wiki/साँचा:": 8043,
      "](https://ta.wikipedia.org/wiki/R": 8044,
      "](https://ta.wikipedia.org/wiki/S": 8045,
      "](https://ta.wikipedia.org/wiki/வி": 8046,
      "](https://ta.wikipedia.org/wiki/உலக": 8047,
      "्रार": 8048,
      "இந்தோ": 8049,
      "▁(இந்தியா)": 8050,
      "ம்\"),": 8051,
      "asian": 8052,
      "19)": 8053,
      "19.": 8054,
      "▁பத": 8055,
      "▁सूच": 8056,
      "▁सीमा": 8057,
      "ica": 8058,
      "ico": 8059,
      "ப்பில்": 8060,
      "tradition": 8061,
      "▁मन्दिर": 8062,
      "्यूरो": 8063,
      "▁sty": 8064,
      "▁school": 8065,
      "amy": 8066,
      "ambo": 8067,
      "ama_": 8068,
      "్రూ": 8069,
      "geoh": 8070,
      "](https://te.wikipedia.org/wiki/సి": 8071,
      "रात": 8072,
      "▁पड़": 8073,
      "▁प्लेट": 8074,
      "▁மெ": 8075,
      "▁மனித": 8076,
      "atel": 8077,
      "▁Sabha": 8078,
      "த்தொடர்": 8079,
      "த்தால்": 8080,
      "▁கலை": 8081,
      "▁கிழ": 8082,
      "uran": 8083,
      "▁12.": 8084,
      "ानगर": 8085,
      "ருநாட": 8086,
      "et/": 8087,
      "▁हाला": 8088,
      "▁हथियार": 8089,
      "verage": 8090,
      "Southeast": 8091,
      "▁men": 8092,
      "▁வரை": 8093,
      "_of_S": 8094,
      "ాలా": 8095,
      "ాలలో": 8096,
      "याधी": 8097,
      "िकी": 8098,
      "▁அறிய": 8099,
      "▁Temple": 8100,
      "్యం": 8101,
      "த்_": 8102,
      "▁air": 8103,
      "ोंकणी": 8104,
      "indian": 8105,
      "irates": 8106,
      "▁ज़": 8107,
      "ற்றல்": 8108,
      "ிரே": 8109,
      "ालर": 8110,
      "indhi": 8111,
      "ర్ణా": 8112,
      "ర్మే": 8113,
      "न्स": 8114,
      "ldlife": 8115,
      "113": 8116,
      "hailand": 8117,
      "▁even": 8118,
      "▁early": 8119,
      "▁बार": 8120,
      "▁बने": 8121,
      "▁बड़ा": 8122,
      "▁G.": 8123,
      "▁प्रस": 8124,
      "भाष": 8125,
      "▁नौसेना": 8126,
      "_in_B": 8127,
      "308": 8128,
      "forest": 8129,
      "சுவ": 8130,
      "_सा": 8131,
      "्टॉक": 8132,
      "18)": 8133,
      "_A7C": 8134,
      "లోక్‌సభ": 8135,
      "oder": 8136,
      "▁Review": 8137,
      "_Pradesh": 8138,
      "▁वृद्ध": 8139,
      "▁nation": 8140,
      "▁[*P": 8141,
      "क्षण": 8142,
      "क्षद्वीप": 8143,
      "▁आन्द": 8144,
      "तिब्बत": 8145,
      "▁వంశ": 8146,
      "abin": 8147,
      "▁[Sharma": 8148,
      "uccess": 8149,
      "சிறப்பு:EditPage/": 8150,
      "▁Kum": 8151,
      ")[[4": 8152,
      "थाईल": 8153,
      "]](https://hi.wikipedia.org/wiki/भारत#cite_note-10": 8154,
      "ngineering": 8155,
      "री](https://hi.wikipedia.org/wiki/": 8156,
      "api": 8157,
      "▁இந்தியாவை": 8158,
      "ாரி": 8159,
      "▁गठ": 8160,
      "▁\"Chin": 8161,
      "ండర్": 8162,
      "▁[महाराष्ट्र": 8163,
      "कांक": 8164,
      "▁முதன்": 8165,
      "ियान": 8166,
      "हिमालय": 8167,
      "త్మా": 8168,
      "▁[↑](https://hi.wikipedia.org/wiki/भारत#cite_ref-10": 8169,
      "ogri": 8170,
      "ंडमान": 8171,
      "▁అతి": 8172,
      "▁लिया": 8173,
      "▁सागर": 8174,
      "ికి": 8175,
      "ன்றா": 8176,
      "▁[↑](https://ta.wikipedia.org/wiki/இந்தியா#cite_ref-FOOTNOTEMetcalfMetcalf2006": 8177,
      "_Bank": 8178,
      "▁\"महाराष्ट्र": 8179,
      "▁विज्ञान": 8180,
      "iley": 8181,
      "▁[2](https://hi.wikipedia.org/wiki/भारत#cite_ref-FOOTNOTE": 8182,
      "▁[1](https://hi.wikipedia.org/wiki/भारत#cite_ref-FOOTNOTE": 8183,
      "ameez": 8184,
      "▁[![The": 8185,
      "▁areas": 8186,
      "हाब": 8187,
      "परेशन": 8188,
      "▁करना": 8189,
      "▁करता": 8190,
      "ंग्रेज": 8191,
      "मीरात": 8192,
      "ద్దు": 8193,
      "](https://hi.wikipedia.org/wiki/महाराष्ट्र": 8194,
      "▁[பா": 8195,
      "ல்கள்": 8196,
      "▁రహదార": 8197,
      "rynus": 8198,
      "](https://en.wikipedia.org/wiki/En": 8199,
      "మాచల్": 8200,
      "▁సామ్రాజ్య": 8201,
      "_மலை": 8202,
      "రువా": 8203,
      "రుణా": 8204,
      "lectri": 8205,
      "న్నో": 8206,
      "ங்கள்\")": 8207,
      "▁चार": 8208,
      "మిజో": 8209,
      "](Special:BookSources/978-0-521": 8210,
      "▁\"Indus": 8211,
      "▁\"Special:BookSources/978-0-521": 8212,
      "▁ఇది": 8213,
      "राष्ट्रीय_स": 8214,
      "IND": 8215,
      "हारजिस्ट": 8216,
      "ा_वार": 8217,
      "िवस": 8218,
      "▁वर्षा": 8219,
      "_भारतीय_": 8220,
      "_Lanka": 8221,
      "](https://en.wikipedia.org/wiki/Indus": 8222,
      "தன்மைக்": 8223,
      "ukesh": 8224,
      "▁జరి": 8225,
      "▁घरेलू": 8226,
      "▁విస్త": 8227,
      "AsherTalbot200853": 8228,
      "समूह": 8229,
      "](https://hi.wikipedia.org/wiki/पूर्व": 8230,
      "ष्ठ": 8231,
      "121–1": 8232,
      "न्नड़": 8233,
      "▁भाषा\")[[": 8234,
      "முறை": 8235,
      "முதன்மைக்": 8236,
      "▁river": 8237,
      "▁శతాబ్ద": 8238,
      "ట్టు": 8239,
      "आईएस": 8240,
      "▁था,": 8241,
      "श्मीरी": 8242,
      "दाख": 8243,
      "ेर-": 8244,
      "రాష్ట్రాలు": 8245,
      "▁Pradesh\")": 8246,
      "िल्ली\")": 8247,
      "వేద": 8248,
      "▁शासित": 8249,
      "▁రాజకీయ": 8250,
      "ंपन": 8251,
      "ंपरा": 8252,
      "▁Force": 8253,
      "त्पत्ति": 8254,
      "415-3": 8255,
      "pib.nic.in/": 8256,
      "uttaph": 8257,
      "tablish": 8258,
      "/articleshow/5": 8259,
      "▁अपने": 8260,
      "▁2004](https://ta.wikipedia.org/wiki/இந்தியா#CITEREF": 8261,
      "ministered": 8262,
      "హిమాచల్": 8263,
      "ार्कट": 8264,
      "▁तटीय": 8265,
      "%E0%A4%A": 8266,
      "▁இயக்க": 8267,
      "హాత్మా": 8268,
      "लिंग": 8269,
      "भूटान": 8270,
      "▁ஒன்றிய": 8271,
      "_to_the": 8272,
      "जयपुर": 8273,
      "जयनगर": 8274,
      "ominion": 8275,
      "िज़ोर": 8276,
      "onsoon_": 8277,
      "णिपुर": 8278,
      "णिपुरी": 8279,
      "लोकसभा": 8280,
      "▁ప్రదేశ్\")": 8281,
      "शासित_प्रदेश": 8282,
      "హారాష్ట్ర": 8283,
      "▁सुरक्षा": 8284,
      "्रांति": 8285,
      "▁2025.": 8286,
      "119–120": 8287,
      "chedule": 8288,
      "శాస్త్ర": 8289,
      "ும்பை": 8290,
      "రాజస్థాన్": 8291,
      "strument": 8292,
      "▁longer": 8293,
      "](https://ta.wikipedia.org/wiki/இந்திய_ரூபாய்": 8294,
      "▁पार्टी": 8295,
      "▁వాతావరణ": 8296,
      "पातकाल": 8297,
      "britannica.com/place": 8298,
      "_न्या": 8299,
      "धिराज्य": 8300,
      "దినోత్స": 8301,
      "▁जलवायु": 8302,
      "▁घाटी": 8303,
      "బెంగాలీ": 8304,
      "యన్మార్": 8305,
      "▁கட்டுரை": 8306,
      "▁ముఖ్య": 8307,
      "▁लगभग": 8308,
      "ूरोप": 8309,
      "-of-india-": 8310,
      "भोजपुरी": 8311,
      "▁वार्ता:": 8312,
      "स्लाम": 8313,
      "MetcalfMetcalf2012-26": 8314,
      "लयालम": 8315,
      "▁सदस": 8316,
      "▁राजनीतिक": 8317,
      "▁[पंजाब](https://hi.wikipedia.org/wiki/पंजाब": 8318,
      "PK:14": 8319,
      "-asia-india": 8320,
      "Jha2018": 8321,
      "▁employed": 8322,
      "rajbhasha": 8323,
      "ச்சு:": 8324,
      "▁oldest": 8325,
      "_राजवंश": 8326,
      "ంజాబ్": 8327,
      "razil": 8328,
      "▁వ్యాస": 8329,
      "▁शुरू": 8330,
      "ravidian": 8331,
      "खनऊ": 8332,
      "யோன்": 8333,
      "हरियाणा": 8334,
      "గుజరాత్": 8335,
      "ఆఫ్ఘనిస్తాన్": 8336,
      "న్‌ఫర్మే": 8337,
      "▁widely": 8338,
      "harmaceutical": 8339,
      "IFT": 8340,
      "beralisation": 8341,
      "तुल्य": 8342,
      "फाएं": 8343,
      "ृषि": 8344,
      "వ](https://te.wikipedia.org/wiki/List_of_": 8345,
      "▁दोनों": 8346,
      "▁ஆயுத": 8347,
      "రిహద్దు": 8348,
      "ப்_பொதுத்_தேர்தல்": 8349,
      "▁निभाई": 8350,
      "చ్చేరి": 8351,
      "olnar": 8352,
      "▁ரூபாய்\")": 8353,
      "runei": 8354,
      "ऍथनोल": 8355,
      "ुम्बई": 8356,
      "▁\"साँचा": 8357,
      "inancial": 8358,
      "](https://hi.wikipedia.org/wiki/साँचा_वार": 8359,
      "ambodia": 8360,
      "geohack": 8361,
      "याधीश": 8362,
      "ర్ణాటక": 8363,
      "▁वृद्धि": 8364,
      "▁[महाराष्ट्र](https://hi.wikipedia.org/wiki/महाराष्ट्र": 8365,
      "▁\"महाराष्ट्र\")": 8366,
      "రుణాచల్": 8367,
      "हारजिस्ट्रार": 8368,
      "uttaphrynus": 8369,
      "ार्कटिका": 8370,
      "న్‌ఫర్మేషన్": 8371,
      "ऍथनोलॉग": 8372,
      "](https://hi.wikipedia.org/wiki/साँचा_वार्ता:": 8373,
      "1)[[": 8374,
      "6%": 8375,
      "Clémentin-Ojha": 8376,
      "First": 8377,
      "LO": 8378,
      "Nehru": 8379,
      "_25": 8380,
      "_history": 8381,
      "aci": 8382,
      "pB": 8383,
      "pace": 8384,
      "pact": 8385,
      "q9": 8386,
      "tou": 8387,
      "wa": 8388,
      "▁60": 8389,
      "▁ob": 8390,
      "kill": 8391,
      "inated": 8392,
      "onk": 8393,
      "ison": 8394,
      "ouli": 8395,
      "▁(2006": 8396,
      "-05": 8397,
      "-0\").\n": 8398,
      "▁so": 8399,
      "▁popular": 8400,
      "acts": 8401,
      "▁Agency": 8402,
      "▁Court": 8403,
      "▁called": 8404,
      "lose": 8405,
      "▁2017.": 8406,
      "▁2016.": 8407,
      "▁Movement": 8408,
      "▁Tim": 8409,
      "istorical": 8410,
      "standard": 8411,
      "269,": 8412,
      "▁Dance": 8413,
      "ays": 8414,
      "-438": 8415,
      "uborne": 8416,
      "▁[\"B": 8417,
      "▁198": 8418,
      "40.": 8419,
      "169": 8420,
      "159": 8421,
      "_Pro": 8422,
      "▁Lank": 8423,
      "ovt": 8424,
      "avin": 8425,
      "▁original](http://www.": 8426,
      "porter": 8427,
      "▁([₹": 8428,
      "39.": 8429,
      "ivision": 8430,
      "▁expectancy": 8431,
      "▁ancient": 8432,
      "▁\"Economic": 8433,
      "/articles/": 8434,
      "▁\"International": 8435,
      "ible": 8436,
      "ramouli": 8437,
      "▁2023.": 8438,
      "▁parliament": 8439,
      "ield": 8440,
      "laci": 8441,
      "-report": 8442,
      ".com/news/national": 8443,
      "▁Buddha": 8444,
      "▁milk": 8445,
      "ylee": 8446,
      "%7c%7c": 8447,
      "▁mathematics": 8448,
      "...]": 8449,
      "▁(1,269,": 8450,
      "thehindu.com/news/national": 8451,
      "▁\"Routledge\").": 8452,
      "▁(2007).": 8453,
      "▁US$": 8454,
      "temporary": 8455,
      "rganisation_for_Economic_Co-operation_and_Development_2007": 8456,
      "Clémentin-Ojha2014": 8457,
      "touch": 8458,
      "▁(2006).": 8459,
      "$](https://ta.wikipedia.org/wiki/அமெரிக்க": 8460,
      "-G": 8461,
      "-க": 8462,
      "-ve": 8463,
      "/C-0": 8464,
      "2-10": 8465,
      "7)[[": 8466,
      ":**": 8467,
      "CCN": 8468,
      "Hindustan": 8469,
      "LS": 8470,
      "MDD": 8471,
      "Official": 8472,
      "XLS": 8473,
      "Young": 8474,
      "_22": 8475,
      "_a_": 8476,
      "_2019": 8477,
      "a-b": 8478,
      "g)": 8479,
      "lc": 8480,
      "oz": 8481,
      "ota": 8482,
      "via": 8483,
      "xim": 8484,
      "yc": 8485,
      "zer": 8486,
      "அ$](https://ta.wikipedia.org/wiki/அமெரிக்க": 8487,
      "ஒன்ற": 8488,
      "டம்": 8489,
      "ணய": 8490,
      "ந்": 8491,
      "ன்க": 8492,
      "ராக": 8493,
      "லே": 8494,
      "லைய": 8495,
      "வோ": 8496,
      "ீர்": 8497,
      "ேரு": 8498,
      "ோதி": 8499,
      "▁37": 8500,
      "pen": 8501,
      "](https://id.": 8502,
      "\")\"": 8503,
      "ers,": 8504,
      "alt": 8505,
      "ources/": 8506,
      "▁(இந்தியா": 8507,
      "▁(199": 8508,
      "▁(2008": 8509,
      "ம்\")\n": 8510,
      "▁set": 8511,
      "▁pur": 8512,
      "78)": 8513,
      "▁Amb": 8514,
      "த்தது.": 8515,
      "த்தைக்": 8516,
      "▁கே": 8517,
      "▁காடு": 8518,
      "▁feat": 8519,
      "lite": 8520,
      "▁திற": 8521,
      "▁may": 8522,
      "▁market": 8523,
      "unknown": 8524,
      "unleav": 8525,
      "▁இசை": 8526,
      "சிசி": 8527,
      "▁Te": 8528,
      "rove": 8529,
      "stre": 8530,
      "▁நகர்": 8531,
      "▁Barb": 8532,
      "india-b": 8533,
      "280": 8534,
      "-498": 8535,
      "▁ஆட்சி": 8536,
      "11.": 8537,
      "▁religions": 8538,
      "சுலா": 8539,
      "ள்ளன.": 8540,
      "1857": 8541,
      "_An": 8542,
      "களு": 8543,
      "களால்": 8544,
      "களைக்": 8545,
      "perCol": 8546,
      "osse": 8547,
      "▁[SAARC": 8548,
      "▁Wall": 8549,
      "-2\").": 8550,
      "றுப": 8551,
      ")[[13": 8552,
      "ார்க்க": 8553,
      "384": 8554,
      "47.": 8555,
      "489": 8556,
      "▁முசுலி": 8557,
      "atab": 8558,
      "ாலர்": 8559,
      "ாலர்\")": 8560,
      "▁\"Sanskrit": 8561,
      "397": 8562,
      "▁2011ஆம்": 8563,
      "▁rural": 8564,
      "37.": 8565,
      "▁தொடர்ந்து": 8566,
      "ணிடப்பட்டது.": 8567,
      "2007),": 8568,
      "▁\"இந்தியப்": 8569,
      "▁\"இந்தியத்": 8570,
      "ians": 8571,
      "▁புற": 8572,
      "▁trade": 8573,
      "▁பிரப": 8574,
      "▁பிரதம": 8575,
      "▁2007](https://ta.wikipedia.org/wiki/இந்தியா#CITEREF": 8576,
      "amily": 8577,
      "_and_depend": 8578,
      "1/DD": 8579,
      "▁துறை": 8580,
      "▁[International": 8581,
      "▁வேறுப": 8582,
      "ளாண்மை": 8583,
      "▁disc": 8584,
      "_files/": 8585,
      "otechnology": 8586,
      "▁2008](https://ta.wikipedia.org/wiki/இந்தியா#CITEREF": 8587,
      "▁[இம்": 8588,
      "▁வாழ்": 8589,
      "▁2016.\n": 8590,
      "▁பரணிடப்பட்டது.": 8591,
      "tribution": 8592,
      "_1960": 8593,
      "▁Prospec": 8594,
      "த்_திரைப்படத்துறை": 8595,
      "countries_and_depend": 8596,
      "▁century,": 8597,
      "மீர்": 8598,
      "inghamYoung": 8599,
      "_இய": 8600,
      "▁ஆறு\")": 8601,
      "▁include": 8602,
      "ேற்குத்": 8603,
      "▁பிரதேசத்தின்": 8604,
      "▁டாலர்\")": 8605,
      "encies_by": 8606,
      "S.XLS": 8607,
      "▁வடக்கு": 8608,
      "censusindia.gov.in/2011census/C-0": 8609,
      "riage": 8610,
      "etary_Fund": 8611,
      "▁York:": 8612,
      "ConinghamYoung": 8613,
      "C-01%20": 8614,
      "estival": 8615,
      "▁மூலத்தில்": 8616,
      "▁கணக்கெடுப்பு": 8617,
      "union_territories": 8618,
      "▁[ஐஅ$](https://ta.wikipedia.org/wiki/அமெரிக்க": 8619,
      "▁dependencies": 8620,
      "▁குறிப்பிட": 8621,
      "imachal": 8622,
      "_Monetary_Fund": 8623,
      "_டாலர்": 8624,
      "▁கீழ்": 8625,
      "tates_and_union_territories": 8626,
      "ompanion": 8627,
      "▁அரசாங்க": 8628,
      "▁தேர்தல்\")": 8629,
      "hattisgarh": 8630,
      "▁1998](https://ta.wikipedia.org/wiki/இந்தியா#CITEREFStein1998),": 8631,
      "Ludden2014),": 8632,
      "▁அன்று.": 8633,
      "ecutive": 8634,
      "MDDS.XLS": 8635,
      "▁(இந்தியா)\")": 8636,
      "perCollin": 8637,
      "ossehl": 8638,
      "1/DDW": 8639,
      "▁பரணிடப்பட்டது..": 8640,
      "▁Prospects": 8641,
      "countries_and_dependencies_by": 8642,
      "censusindia.gov.in/2011census/C-01/DDW": 8643,
      "ConinghamYoung2015": 8644,
      "C-01%20MDDS.XLS": 8645,
      "▁[ஐஅ$](https://ta.wikipedia.org/wiki/அமெரிக்க_டாலர்": 8646,
      "-india-": 8647,
      "-year": 8648,
      "/m": 8649,
      "/news/": 8650,
      "5]](https://en.wikipedia.org/wiki/India#cite_note-": 8651,
      "6-1": 8652,
      "9-5": 8653,
      "AL": 8654,
      "Countries": 8655,
      "Central_Intelligence_Agency": 8656,
      "Wright": 8657,
      "cod": 8658,
      "eta": 8659,
      "government": 8660,
      "iti": 8661,
      "jayan": 8662,
      "kel": 8663,
      "ps": 8664,
      "raman": 8665,
      "upee": 8666,
      "wat": 8667,
      "yana": 8668,
      "–11": 8669,
      "–18": 8670,
      "](Special:EditPage/Template:": 8671,
      "enta": 8672,
      "▁\"Special:EditPage/Template:": 8673,
      "anchi": 8674,
      "algrave": 8675,
      "istic": 8676,
      "▁(2003": 8677,
      "ito": 8678,
      "1980": 8679,
      "▁ins": 8680,
      "▁sc": 8681,
      "▁small": 8682,
      "acred": 8683,
      "▁Sub": 8684,
      "▁Survey": 8685,
      "▁fl": 8686,
      "▁char": 8687,
      "▁1200": 8688,
      "lima": 8689,
      "heeta": 8690,
      "▁millennium": 8691,
      "teri": 8692,
      "_of_N": 8693,
      "_of_South_Asia": 8694,
      "ola": 8695,
      "olice": 8696,
      "▁To": 8697,
      "rata": 8698,
      "rocod": 8699,
      "riy": 8700,
      "▁Black": 8701,
      "ign_": 8702,
      "▁*C": 8703,
      "nimal": 8704,
      "-316": 8705,
      "lym": 8706,
      "▁Gujarat": 8707,
      "▁republic": 8708,
      "▁remain": 8709,
      "▁[\"In": 8710,
      "hare": 8711,
      "16.": 8712,
      "▁gr": 8713,
      "13)": 8714,
      "akers": 8715,
      "_Cooperation": 8716,
      "_and_N": 8717,
      "_and_For": 8718,
      "uck": 8719,
      ")[[3": 8720,
      "ishes": 8721,
      "36.": 8722,
      "▁\"Central": 8723,
      "▁\"Climate": 8724,
      "undarb": 8725,
      "ourism": 8726,
      "▁[China": 8727,
      "artial": 8728,
      "_DS": 8729,
      "39)": 8730,
      "▁\"Ministry": 8731,
      "](https://en.wikipedia.org/wiki/China": 8732,
      "▁2011](https://en.wikipedia.org/wiki/India#CITEREF": 8733,
      "iving": 8734,
      "orea": 8735,
      "▁tal": 8736,
      "▁\"Template": 8737,
      "674": 8738,
      "67–": 8739,
      "radition": 8740,
      "▁\"Delhi": 8741,
      "](https://en.wikipedia.org/wiki/Template_": 8742,
      "▁1990": 8743,
      "▁79.": 8744,
      "](https://en.wikipedia.org/wiki/Delhi": 8745,
      "▁[Tamil": 8746,
      "hyan": 8747,
      "▁2014](https://en.wikipedia.org/wiki/India#CITEREF": 8748,
      "](https://en.wikipedia.org/wiki/Routledge": 8749,
      "tence": 8750,
      "](https://en.wikipedia.org/wiki/India#cite_ref-vatsyayan-lord_43": 8751,
      "▁tea": 8752,
      "▁[History": 8753,
      "_Indian_subcontinent": 8754,
      "orities/": 8755,
      "32-1": 8756,
      "▁[Archived](https://web.archive.org/web/20190": 8757,
      "▁common": 8758,
      "-level": 8759,
      "press.com/": 8760,
      "▁numbers": 8761,
      "iteracy": 8762,
      "Vijayan": 8763,
      "▁[t](https://en.wikipedia.org/wiki/Template_": 8764,
      "▁2003](https://en.wikipedia.org/wiki/India#CITEREF": 8765,
      "▁[e](Special:EditPage/Template:": 8766,
      "▁[v](Template:": 8767,
      "omason": 8768,
      "/authorities/": 8769,
      "▁2025.\n": 8770,
      "ennai": 8771,
      "hanghai": 8772,
      "ground": 8773,
      "▁Monetary": 8774,
      "▁2018](https://en.wikipedia.org/wiki/India#CITEREFFisher2018),": 8775,
      "olden_Temple": 8776,
      "▁[Routledge](https://en.wikipedia.org/wiki/Routledge": 8777,
      "▁(c)": 8778,
      "documents/": 8779,
      "%3D": 8780,
      "▁Games\")": 8781,
      "Environment_and_For": 8782,
      "▁India](https://en.wikipedia.org/wiki/Government_of_India": 8783,
      "▁zone": 8784,
      "web.archive.org/web/20090": 8785,
      "_Air_Force": 8786,
      "ibetan": 8787,
      "ataraja": 8788,
      "▁engineering": 8789,
      "▁village": 8790,
      "8+5": 8791,
      "limate_": 8792,
      "heetah": 8793,
      "undarbans": 8794,
      "▁[China](https://en.wikipedia.org/wiki/China": 8795,
      "▁[t](https://en.wikipedia.org/wiki/Template_tal": 8796,
      "Environment_and_Forests": 8797,
      "\"](http://www.": 8798,
      ",_India": 8799,
      "-to": 8800,
      "-गंगा": 8801,
      "-results": 8802,
      "1200": 8803,
      "2%29": 8804,
      "310": 8805,
      "315": 8806,
      "370": 8807,
      "6),": 8808,
      "B0%": 8809,
      "CD": 8810,
      "Curry": 8811,
      "Copland": 8812,
      "EM": 8813,
      "IL": 8814,
      "OLA": 8815,
      "_a": 8816,
      "_கா": 8817,
      "_2022": 8818,
      "lue": 8819,
      "mc": 8820,
      "mas": 8821,
      "sci": 8822,
      "uture": 8823,
      "}}": 8824,
      "ँकि": 8825,
      "ंबर": 8826,
      "इल": 8827,
      "ईस्ट": 8828,
      "ऊर्जा": 8829,
      "ऋतु": 8830,
      "ऑपरेशन": 8831,
      "कु": 8832,
      "जवा": 8833,
      "तग": 8834,
      "त्या": 8835,
      "तमान": 8836,
      "थी": 8837,
      "दु": 8838,
      "नत": 8839,
      "ल्त": 8840,
      "वली": 8841,
      "शील": 8842,
      "सत": 8843,
      "सैन": 8844,
      "ीक": 8845,
      "ुक": 8846,
      "ुस्तान": 8847,
      "ूस": 8848,
      "ेय": 8849,
      "४.": 8850,
      "५०": 8851,
      "தில்": 8852,
      "நிலை": 8853,
      "னே": 8854,
      "னிய": 8855,
      "பூ": 8856,
      "பார்": 8857,
      "ாத": 8858,
      "ுறை": 8859,
      "ேல": 8860,
      "ைத்": 8861,
      "ంతి": 8862,
      "కాల": 8863,
      "కారం": 8864,
      "ఖ్": 8865,
      "గంగా": 8866,
      "టో": 8867,
      "డిన": 8868,
      "తీ": 8869,
      "ధి": 8870,
      "ధించ": 8871,
      "నల్": 8872,
      "మన": 8873,
      "మర": 8874,
      "ర్యా": 8875,
      "లం": 8876,
      "లతో": 8877,
      "లమె": 8878,
      "ీస్": 8879,
      "ూప": 8880,
      "ూరు": 8881,
      "ెనీ": 8882,
      "ౌక": 8883,
      "–17": 8884,
      "▁x": 8885,
      "▁ऐ": 8886,
      "▁ద": 8887,
      "▁ఫ": 8888,
      "▁enti": 8889,
      "▁దక్షిణ": 8890,
      "▁హిందూ": 8891,
      "▁గాంధీ": 8892,
      "▁[ए": 8893,
      "▁[భారతదేశం": 8894,
      "▁[University": 8895,
      "▁[ఢిల్లీ": 8896,
      "▁[archived": 8897,
      "enced": 8898,
      "▁\"Y": 8899,
      "▁\"சி": 8900,
      "▁\"University": 8901,
[...]
